unsigned char model_quantized_tflite[] = {
  0x1c, 0x00, 0x00, 0x00, 0x54, 0x46, 0x4c, 0x33, 0x00, 0x00, 0x12, 0x00,
  0x1c, 0x00, 0x04, 0x00, 0x08, 0x00, 0x0c, 0x00, 0x10, 0x00, 0x14, 0x00,
  0x00, 0x00, 0x18, 0x00, 0x12, 0x00, 0x00, 0x00, 0x03, 0x00, 0x00, 0x00,
  0x98, 0x46, 0x00, 0x00, 0xe4, 0x39, 0x00, 0x00, 0xcc, 0x39, 0x00, 0x00,
  0x3c, 0x00, 0x00, 0x00, 0x04, 0x00, 0x00, 0x00, 0x01, 0x00, 0x00, 0x00,
  0x0c, 0x00, 0x00, 0x00, 0x08, 0x00, 0x0c, 0x00, 0x04, 0x00, 0x08, 0x00,
  0x08, 0x00, 0x00, 0x00, 0x08, 0x00, 0x00, 0x00, 0x10, 0x00, 0x00, 0x00,
  0x13, 0x00, 0x00, 0x00, 0x6d, 0x69, 0x6e, 0x5f, 0x72, 0x75, 0x6e, 0x74,
  0x69, 0x6d, 0x65, 0x5f, 0x76, 0x65, 0x72, 0x73, 0x69, 0x6f, 0x6e, 0x00,
  0x11, 0x00, 0x00, 0x00, 0x7c, 0x39, 0x00, 0x00, 0x68, 0x39, 0x00, 0x00,
  0xcc, 0x38, 0x00, 0x00, 0x98, 0x38, 0x00, 0x00, 0x04, 0x33, 0x00, 0x00,
  0x70, 0x31, 0x00, 0x00, 0xcc, 0x30, 0x00, 0x00, 0xa8, 0x30, 0x00, 0x00,
  0xb4, 0x00, 0x00, 0x00, 0xa8, 0x00, 0x00, 0x00, 0x94, 0x00, 0x00, 0x00,
  0x80, 0x00, 0x00, 0x00, 0x6c, 0x00, 0x00, 0x00, 0x58, 0x00, 0x00, 0x00,
  0x44, 0x00, 0x00, 0x00, 0x30, 0x00, 0x00, 0x00, 0x04, 0x00, 0x00, 0x00,
  0x32, 0xc6, 0xff, 0xff, 0x04, 0x00, 0x00, 0x00, 0x10, 0x00, 0x00, 0x00,
  0x31, 0x2e, 0x35, 0x2e, 0x30, 0x00, 0x00, 0x00, 0x00, 0x00, 0x00, 0x00,
  0x00, 0x00, 0x00, 0x00, 0x00, 0x00, 0x00, 0x00, 0x00, 0x00, 0x00, 0x00,
  0x00, 0x00, 0x00, 0x00, 0x50, 0xba, 0xff, 0xff, 0x00, 0x00, 0x00, 0x00,
  0x00, 0x00, 0x00, 0x00, 0x00, 0x00, 0x00, 0x00, 0x60, 0xba, 0xff, 0xff,
  0x00, 0x00, 0x00, 0x00, 0x00, 0x00, 0x00, 0x00, 0x00, 0x00, 0x00, 0x00,
  0x70, 0xba, 0xff, 0xff, 0x00, 0x00, 0x00, 0x00, 0x00, 0x00, 0x00, 0x00,
  0x00, 0x00, 0x00, 0x00, 0x80, 0xba, 0xff, 0xff, 0x00, 0x00, 0x00, 0x00,
  0x00, 0x00, 0x00, 0x00, 0x00, 0x00, 0x00, 0x00, 0x90, 0xba, 0xff, 0xff,
  0x00, 0x00, 0x00, 0x00, 0x00, 0x00, 0x00, 0x00, 0x00, 0x00, 0x00, 0x00,
  0xa0, 0xba, 0xff, 0xff, 0x00, 0x00, 0x00, 0x00, 0x00, 0x00, 0x00, 0x00,
  0x00, 0x00, 0x00, 0x00, 0xb0, 0xba, 0xff, 0xff, 0x00, 0x00, 0x00, 0x00,
  0xc2, 0xc6, 0xff, 0xff, 0x04, 0x00, 0x00, 0x00, 0xda, 0x2f, 0x00, 0x00,
  0xdb, 0xcf, 0x00, 0x00, 0xd9, 0xca, 0xff, 0xd5, 0xee, 0xe6, 0xcd, 0xd9,
  0xf4, 0xe9, 0xe3, 0xca, 0xca, 0xce, 0xd9, 0xc4, 0xd7, 0xe0, 0xec, 0xff,
  0xe8, 0xcf, 0x00, 0xcf, 0xdd, 0x00, 0xd2, 0xd6, 0xd5, 0xcf, 0xef, 0xe0,
  0xdb, 0x00, 0x00, 0xde, 0xdc, 0xff, 0xe2, 0xed, 0xed, 0xef, 0xe6, 0xf5,
  0xea, 0xe9, 0xe8, 0xc9, 0xe5, 0xf1, 0xda, 0xf0, 0xdb, 0xec, 0x00, 0xe7,
  0xd5, 0x00, 0xdc, 0xec, 0x00, 0xe1, 0xef, 0xc5, 0xda, 0xf7, 0xde, 0xdb,
  0x00, 0x00, 0xe0, 0xdf, 0x00, 0xdd, 0xec, 0xee, 0xec, 0xe3, 0xfa, 0xea,
  0xe6, 0xe3, 0xc7, 0xe4, 0xed, 0xdf, 0xe5, 0xd1, 0xee, 0xff, 0xe2, 0xe0,
  0xff, 0xe5, 0xed, 0x00, 0xe0, 0xe7, 0xc9, 0xd9, 0xf6, 0xdf, 0xe8, 0xff,
  0xff, 0xd8, 0xe3, 0x00, 0xda, 0xe9, 0xe9, 0xf0, 0xe0, 0xfa, 0xe9, 0xe5,
  0xe3, 0xdb, 0xe1, 0xec, 0xe3, 0xe5, 0xd8, 0xee, 0xfe, 0xdd, 0xe6, 0xff,
  0xe1, 0xe6, 0x00, 0xe6, 0xe9, 0xd1, 0xda, 0xf4, 0xe6, 0xe9, 0x00, 0xff,
  0xd5, 0xea, 0x00, 0xda, 0xe8, 0xe9, 0xef, 0xdf, 0xf5, 0xe2, 0xed, 0xe4,
  0xe3, 0xde, 0xed, 0xe0, 0xe0, 0xdd, 0xf1, 0xff, 0xe8, 0xe9, 0xff, 0xe6,
  0xeb, 0x00, 0xe6, 0xe8, 0xd8, 0xd8, 0xf6, 0xe2, 0xe3, 0x00, 0xff, 0xde,
  0xe6, 0x00, 0xd6, 0xe1, 0xe6, 0xec, 0xd6, 0xef, 0xe4, 0xed, 0xdf, 0xde,
  0xd8, 0xee, 0xe5, 0xe4, 0xe3, 0xf1, 0xfe, 0xe7, 0xe9, 0x00, 0xe6, 0xe8,
  0x00, 0xe8, 0xe0, 0xd1, 0xda, 0xf6, 0xe2, 0xe7, 0x00, 0xff, 0xe3, 0xdf,
  0x00, 0xda, 0xe0, 0xe8, 0xeb, 0xdc, 0xe9, 0xe9, 0xec, 0xe0, 0xe6, 0xd9,
  0xee, 0xe5, 0xe7, 0xe4, 0xed, 0xff, 0xe9, 0xe7, 0x00, 0xe9, 0xeb, 0x00,
  0xe7, 0xde, 0xdd, 0xd3, 0xf4, 0xdb, 0xe5, 0x00, 0xfe, 0xe5, 0xe5, 0x00,
  0xde, 0xdf, 0xe4, 0xed, 0xda, 0xe7, 0xe9, 0xec, 0xe1, 0xe5, 0xda, 0xf0,
  0xdd, 0xe9, 0xe4, 0xeb, 0xff, 0xea, 0xe7, 0x00, 0xea, 0xed, 0x00, 0xe8,
  0xe2, 0xd7, 0xd7, 0xf4, 0xe1, 0xde, 0x00, 0xfe, 0xe6, 0xdf, 0x00, 0xd9,
  0xde, 0xe2, 0xee, 0xd8, 0xef, 0xe9, 0xed, 0xde, 0xd4, 0xd9, 0xf0, 0xe0,
  0xe3, 0xe6, 0xea, 0xff, 0xea, 0xe6, 0xff, 0xe9, 0xeb, 0x00, 0xe5, 0xdc,
  0xe2, 0xd2, 0xf4, 0xd9, 0xe6, 0x00, 0xfe, 0xec, 0xda, 0x00, 0xda, 0xe4,
  0xdf, 0xd1, 0xe1, 0xdd, 0xec, 0xf2, 0xda, 0xc8, 0xd2, 0xec, 0xe2, 0xec,
  0xe4, 0xed, 0xfe, 0xe5, 0xee, 0x00, 0xea, 0xeb, 0x00, 0xe5, 0xdc, 0xd2,
  0xd6, 0xf3, 0xcd, 0xd3, 0x00, 0x00, 0xd0, 0xcd, 0x00, 0xd6, 0xee, 0xeb,
  0xd6, 0xe2, 0xf4, 0xe7, 0xec, 0xd6, 0xde, 0xca, 0xe1, 0xc5, 0xe0, 0xe0,
  0xe2, 0xff, 0xe4, 0xd8, 0x00, 0xd3, 0xe5, 0x01, 0xd8, 0xda, 0xd7, 0xce,
  0xf3, 0xd8, 0xd1, 0x00, 0x00, 0xd6, 0xe3, 0x00, 0xdd, 0xf1, 0xf0, 0xf2,
  0xe7, 0xf4, 0xeb, 0xea, 0xeb, 0xcc, 0xe6, 0xe3, 0xd6, 0xf3, 0xdc, 0xee,
  0x00, 0xe7, 0xda, 0xff, 0xde, 0xe9, 0x00, 0xdd, 0xf1, 0xc9, 0xdd, 0xfa,
  0xdd, 0xe4, 0x00, 0xff, 0xcf, 0xe3, 0x00, 0xe2, 0xef, 0xef, 0xf1, 0xe9,
  0xf4, 0xec, 0xeb, 0xea, 0xdb, 0xea, 0xe7, 0xda, 0xe6, 0xdc, 0xee, 0xff,
  0xec, 0xe4, 0x00, 0xd7, 0xef, 0x00, 0xe2, 0xf1, 0xd9, 0xe3, 0xfa, 0xe0,
  0xde, 0x00, 0xfe, 0xcd, 0xe3, 0xff, 0xe2, 0xea, 0xed, 0xf3, 0xe2, 0xf8,
  0xe9, 0xeb, 0xe5, 0xdb, 0xe4, 0xe8, 0xdd, 0xe1, 0xe5, 0xf0, 0xfe, 0xe4,
  0xe8, 0x00, 0xe0, 0xea, 0x00, 0xe6, 0xed, 0xd6, 0xdc, 0xfb, 0xd9, 0xdd,
  0x00, 0xfe, 0xce, 0xe0, 0x00, 0xde, 0xeb, 0xf1, 0xf3, 0xe0, 0xf9, 0xe5,
  0xec, 0xe4, 0xbd, 0xe2, 0xe9, 0xd2, 0xe8, 0xe7, 0xf1, 0xff, 0xe1, 0xe3,
  0xff, 0xe3, 0xe8, 0x00, 0xe0, 0xed, 0xe0, 0xde, 0xfb, 0xe1, 0xe2, 0x00,
  0xff, 0xd2, 0xd9, 0x00, 0xda, 0xe2, 0xed, 0xf0, 0xda, 0xf5, 0xe7, 0xee,
  0xe0, 0xdf, 0xe0, 0xeb, 0xcb, 0xde, 0xe7, 0xea, 0xfe, 0xe2, 0xe5, 0x00,
  0xe1, 0xea, 0xff, 0xe0, 0xe2, 0xe3, 0xde, 0xf9, 0xdd, 0xe3, 0x00, 0xff,
  0xd9, 0xdf, 0xff, 0xe3, 0xe3, 0xe7, 0xf2, 0xdf, 0xf3, 0xe2, 0xf4, 0xe3,
  0xe5, 0xde, 0xea, 0xd9, 0xea, 0xe9, 0xf0, 0xff, 0xe6, 0xe4, 0x00, 0xe4,
  0xec, 0x00, 0xe3, 0xe9, 0xd8, 0xd7, 0xf9, 0xe1, 0xea, 0x00, 0xfe, 0xd8,
  0xdf, 0x00, 0xe5, 0xe2, 0xdf, 0xcf, 0xdf, 0xe6, 0xe5, 0xec, 0xdc, 0xda,
  0xdb, 0xe9, 0xda, 0xed, 0xe7, 0xee, 0xff, 0xe8, 0xe5, 0x00, 0xe5, 0xee,
  0x00, 0xde, 0xdb, 0xde, 0xdb, 0xf6, 0xdf, 0xe7, 0x00, 0xfe, 0xe9, 0xe2,
  0x00, 0xe5, 0xe0, 0xd9, 0xee, 0xe2, 0xe7, 0xe6, 0xf4, 0xe1, 0xcf, 0xde,
  0xea, 0xdf, 0xf1, 0xe7, 0xee, 0xff, 0xe7, 0xe5, 0xff, 0xe8, 0xeb, 0x00,
  0xe2, 0xe5, 0xce, 0xd5, 0xf7, 0xe8, 0xe8, 0x00, 0xfe, 0xed, 0xe7, 0x00,
  0xe8, 0xe6, 0xd8, 0xca, 0xe1, 0xda, 0xe9, 0xf0, 0xdc, 0xc6, 0xd3, 0xea,
  0xe3, 0xea, 0xee, 0xef, 0xfe, 0xe4, 0xef, 0x00, 0xe9, 0xeb, 0xff, 0xe6,
  0xe0, 0xe6, 0xe0, 0xf6, 0xc0, 0xe1, 0x00, 0xff, 0xd2, 0xda, 0x00, 0xdd,
  0xeb, 0xdd, 0xe0, 0xe2, 0xf3, 0xe5, 0xf6, 0xd3, 0xc7, 0xd4, 0xd8, 0xc9,
  0xec, 0xe6, 0xe7, 0xff, 0xe8, 0xd7, 0x00, 0xce, 0xe5, 0x00, 0xd4, 0xde,
  0xe6, 0xd3, 0xf5, 0xdb, 0xcc, 0x01, 0x00, 0xc8, 0xe5, 0xff, 0xdd, 0xf1,
  0xf0, 0xf3, 0xe2, 0xf4, 0xe8, 0xeb, 0xea, 0xda, 0xe7, 0xe1, 0xc5, 0xd8,
  0xdd, 0xef, 0xff, 0xed, 0xd9, 0xff, 0xcc, 0xed, 0xff, 0xdd, 0xf2, 0xd0,
  0xdd, 0xfb, 0xe1, 0xdb, 0x00, 0xff, 0xca, 0xe1, 0xff, 0xe3, 0xf0, 0xf3,
  0xf1, 0xe5, 0xf5, 0xec, 0xeb, 0xe8, 0xe1, 0xe8, 0xeb, 0xdd, 0xe6, 0xdd,
  0xef, 0xfd, 0xea, 0xe5, 0xff, 0xd4, 0xea, 0x00, 0xde, 0xef, 0xda, 0xe4,
  0xfb, 0xe3, 0xdb, 0x00, 0xff, 0xd0, 0xe1, 0x00, 0xe5, 0xeb, 0xf1, 0xf4,
  0xe5, 0xf4, 0xea, 0xeb, 0xe7, 0xd9, 0xe2, 0xea, 0xd8, 0xec, 0xe4, 0xf1,
  0xff, 0xe9, 0xe7, 0x00, 0xd7, 0xe4, 0x00, 0xdd, 0xed, 0xdc, 0xe2, 0xfc,
  0xe1, 0xe0, 0x00, 0xff, 0xdd, 0xea, 0x00, 0xe4, 0xeb, 0xee, 0xf4, 0xe3,
  0xf6, 0xe9, 0xed, 0xe7, 0xe0, 0xe3, 0xe6, 0xc8, 0xed, 0xe8, 0xf1, 0xff,
  0xe7, 0xe7, 0x01, 0xdc, 0xe6, 0xff, 0xe5, 0xed, 0xde, 0xe8, 0xfa, 0xe3,
  0xe1, 0xff, 0xff, 0xe1, 0xf0, 0x00, 0xde, 0xe5, 0xea, 0xf1, 0xdf, 0xf4,
  0xe8, 0xf5, 0xe5, 0xcd, 0xdf, 0xe6, 0xda, 0xe9, 0xeb, 0xee, 0xff, 0xe0,
  0xec, 0x00, 0xd8, 0xe9, 0x00, 0xe2, 0xe9, 0xe9, 0xe7, 0xfa, 0xdf, 0xe0,
  0x00, 0xfe, 0xdf, 0xef, 0xff, 0xe3, 0xe5, 0xef, 0xf1, 0xd9, 0xf3, 0xe6,
  0xee, 0xda, 0xc8, 0xdc, 0xe3, 0xdd, 0xde, 0xe5, 0xf0, 0xff, 0xe3, 0xea,
  0x00, 0xd9, 0xeb, 0x00, 0xe4, 0xde, 0xde, 0xe0, 0xf8, 0xd8, 0xe0, 0xff,
  0xfe, 0xe0, 0xe7, 0x00, 0xd9, 0xe5, 0xe7, 0xea, 0xd1, 0xe5, 0xe9, 0xef,
  0xc9, 0xd2, 0xd5, 0xdb, 0xd4, 0xe0, 0xe7, 0xe7, 0xff, 0xe2, 0xe8, 0xff,
  0xdb, 0xef, 0xff, 0xe5, 0xda, 0xd8, 0xdf, 0xf5, 0xd4, 0xe1, 0x00, 0xfe,
  0xde, 0xdf, 0x00, 0xcc, 0xe3, 0xec, 0xd9, 0xcf, 0xe8, 0xe0, 0xf1, 0xce,
  0xcd, 0xcb, 0xdc, 0xd1, 0xd9, 0xe4, 0xdf, 0xff, 0xe5, 0xe8, 0x00, 0xe2,
  0xed, 0x00, 0xe4, 0xd2, 0xe2, 0xd8, 0xf0, 0xd5, 0xd8, 0x00, 0xfe, 0xdf,
  0xe3, 0x00, 0xda, 0xe8, 0xea, 0xcf, 0xd3, 0xd8, 0xe9, 0xf1, 0xc8, 0xfd,
  0xd4, 0xd8, 0xe6, 0xde, 0xdd, 0xe7, 0xff, 0xe4, 0xf1, 0x00, 0xe7, 0xec,
  0xfe, 0xe3, 0xd7, 0xd4, 0xd6, 0xf1, 0xcd, 0xde, 0x00, 0x00, 0xc8, 0xd0,
  0xff, 0xe3, 0xec, 0xe7, 0xd4, 0xe3, 0xf3, 0xe6, 0xe2, 0xd3, 0xda, 0xd3,
  0xd8, 0xc7, 0xe7, 0xe9, 0xe5, 0xff, 0xe5, 0xd4, 0xff, 0xbb, 0xe6, 0x00,
  0xda, 0xe2, 0xdc, 0xd7, 0xf2, 0xdf, 0xd4, 0x00, 0x00, 0xd4, 0xd9, 0x00,
  0xdd, 0xf2, 0xf2, 0xf4, 0xe4, 0xf2, 0xea, 0xeb, 0xe6, 0xdd, 0xe7, 0xd3,
  0xc3, 0xe1, 0xe3, 0xef, 0xff, 0xdd, 0xd5, 0x00, 0xd5, 0xe8, 0xff, 0xe3,
  0xf3, 0xd2, 0xe4, 0xf8, 0xe7, 0xe0, 0x00, 0x00, 0xe6, 0xe2, 0xff, 0xe4,
  0xee, 0xef, 0xf3, 0xeb, 0xf5, 0xe8, 0xea, 0xe7, 0xe1, 0xe9, 0xe5, 0xce,
  0xe3, 0xe1, 0xee, 0x00, 0xe2, 0xe0, 0x00, 0xe1, 0xe8, 0xff, 0xe5, 0xf2,
  0xd8, 0xe9, 0xfa, 0xe9, 0xe5, 0x00, 0x00, 0xd9, 0xe2, 0x00, 0xe7, 0xea,
  0xee, 0xf6, 0xe4, 0xf1, 0xed, 0xea, 0xe3, 0xd4, 0xe4, 0xeb, 0xd3, 0xe8,
  0xe4, 0xf0, 0xfe, 0xe0, 0xe2, 0x00, 0xd5, 0xe4, 0xff, 0xe0, 0xee, 0xe3,
  0xe8, 0xf9, 0xe8, 0xe0, 0xff, 0x00, 0xd4, 0xea, 0x00, 0xe2, 0xec, 0xea,
  0xf5, 0xe2, 0xf4, 0xea, 0xee, 0xe5, 0xce, 0xe2, 0xe6, 0xca, 0xe5, 0xe5,
  0xf1, 0xfe, 0xde, 0xdf, 0x00, 0xd5, 0xde, 0xff, 0xdf, 0xf1, 0xda, 0xe6,
  0xf9, 0xea, 0xe8, 0x00, 0xff, 0xe1, 0xe2, 0x00, 0xdb, 0xe7, 0xd3, 0xef,
  0xda, 0xeb, 0xe8, 0xec, 0xd7, 0xcb, 0xdd, 0xe6, 0xdf, 0xdc, 0xe7, 0xed,
  0xff, 0xd6, 0xec, 0xff, 0xd2, 0xe9, 0xff, 0xe3, 0xe2, 0xd2, 0xdd, 0xf7,
  0xea, 0xeb, 0xff, 0xff, 0xd7, 0xeb, 0x00, 0xe3, 0xe7, 0xd8, 0xd7, 0xe2,
  0xca, 0xe5, 0xef, 0xcd, 0xd9, 0xdb, 0xe9, 0xdf, 0xef, 0xe7, 0xe0, 0xff,
  0xda, 0xe2, 0xff, 0xd7, 0xe8, 0xff, 0xe1, 0xe0, 0xd8, 0xe0, 0xf6, 0xe9,
  0xeb, 0x00, 0xfe, 0xdc, 0xeb, 0x00, 0xe7, 0xe7, 0xdd, 0xe7, 0xe2, 0xdd,
  0xe6, 0xee, 0xd4, 0xd6, 0xdc, 0xe9, 0xd8, 0xf1, 0xe9, 0xec, 0xff, 0xdb,
  0xe8, 0xff, 0xd7, 0xec, 0xff, 0xdf, 0xe3, 0xd8, 0xe8, 0xf3, 0xe9, 0xe9,
  0x00, 0xff, 0xe2, 0xea, 0x00, 0xea, 0xe6, 0xe0, 0xe5, 0xe3, 0xd1, 0xe8,
  0xef, 0xe2, 0xdc, 0xe0, 0xeb, 0xd8, 0xee, 0xe7, 0xee, 0xff, 0xda, 0xe3,
  0xff, 0xe1, 0xe9, 0xff, 0xe3, 0xe7, 0xd9, 0xe8, 0xf7, 0xed, 0xe8, 0x00,
  0xff, 0xe4, 0xe7, 0x00, 0xeb, 0xea, 0xdf, 0xd9, 0xe2, 0xce, 0xec, 0xf2,
  0xdc, 0xdc, 0xdd, 0xed, 0xe7, 0xed, 0xec, 0xee, 0xff, 0xe1, 0xe9, 0xff,
  0xdd, 0xeb, 0xff, 0xe4, 0xe3, 0xe6, 0xe8, 0xf6, 0xc5, 0xd5, 0x00, 0xff,
  0xce, 0xc7, 0x00, 0xcb, 0xf0, 0xe7, 0xd8, 0xd4, 0xf0, 0xe6, 0xe0, 0xcc,
  0xd6, 0xda, 0xc8, 0xb4, 0xdc, 0xe6, 0xe6, 0xff, 0xdd, 0xd0, 0xff, 0xc0,
  0xeb, 0x00, 0xe4, 0xe7, 0xdc, 0xd8, 0xf7, 0xd2, 0xd8, 0x00, 0x00, 0xed,
  0xcd, 0x00, 0xd9, 0xf4, 0xed, 0xdc, 0xdb, 0xef, 0xea, 0xe9, 0xda, 0xe2,
  0xda, 0xd4, 0xbe, 0xdb, 0xe8, 0xe6, 0xff, 0xdb, 0xdc, 0x00, 0xe3, 0xe6,
  0x00, 0xe7, 0xda, 0xd6, 0xd7, 0xf8, 0xd9, 0xdc, 0x00, 0x00, 0xe8, 0xc8,
  0x00, 0xd3, 0xf3, 0xeb, 0xdc, 0xd9, 0xf2, 0xeb, 0xe6, 0xd9, 0xdc, 0xdd,
  0xdb, 0xcb, 0xdd, 0xe6, 0xe2, 0xfe, 0xe2, 0xdf, 0xff, 0xe4, 0xeb, 0x00,
  0xea, 0xdd, 0xd8, 0xe6, 0xf6, 0xe2, 0xdb, 0x00, 0x00, 0xe9, 0xd0, 0x00,
  0xdb, 0xf0, 0xef, 0xea, 0xdb, 0xf6, 0xed, 0xec, 0xdd, 0xe0, 0xdf, 0xde,
  0xd1, 0xe0, 0xe6, 0xf0, 0xfe, 0xe9, 0xe2, 0x00, 0xe4, 0xed, 0xff, 0xe9,
  0xe6, 0xd9, 0xe9, 0xf7, 0xe6, 0xe3, 0x00, 0x00, 0xe7, 0xd7, 0x00, 0xde,
  0xef, 0xed, 0xf0, 0xe2, 0xf2, 0xe9, 0xeb, 0xde, 0xe9, 0xdf, 0xeb, 0xd8,
  0xf0, 0xe6, 0xf1, 0xfe, 0xe6, 0xe8, 0x00, 0xe4, 0xed, 0xfe, 0xe9, 0xe8,
  0xe2, 0xe5, 0xf9, 0xe9, 0xee, 0x00, 0xff, 0xe3, 0xe7, 0x00, 0xdf, 0xe8,
  0xed, 0xf1, 0xe7, 0xf0, 0xe9, 0xf2, 0xe2, 0xe8, 0xe3, 0xec, 0xe3, 0xf4,
  0xe9, 0xed, 0xfe, 0xe7, 0xe7, 0x00, 0xdf, 0xec, 0xfe, 0xe9, 0xec, 0xde,
  0xe5, 0xf8, 0xe9, 0xeb, 0x00, 0x00, 0xea, 0xeb, 0x00, 0xe6, 0xe6, 0xe7,
  0xf4, 0xea, 0xed, 0xe8, 0xee, 0xe1, 0xd3, 0xe5, 0xec, 0xe0, 0xf4, 0xec,
  0xee, 0xfe, 0xe6, 0xe5, 0x00, 0xe3, 0xeb, 0xff, 0xe9, 0xe9, 0xde, 0xe7,
  0xf9, 0xec, 0xec, 0x00, 0xff, 0xec, 0xea, 0x00, 0xe6, 0xe4, 0xec, 0xf0,
  0xe6, 0xea, 0xe4, 0xee, 0xe0, 0xe6, 0xe0, 0xeb, 0xe3, 0xf5, 0xeb, 0xed,
  0xfe, 0xe5, 0xe4, 0x00, 0xe2, 0xed, 0xff, 0xed, 0xed, 0xdc, 0xe9, 0xf7,
  0xe9, 0xe9, 0x00, 0xff, 0xee, 0xeb, 0x00, 0xe2, 0xe2, 0xe9, 0xf0, 0xe6,
  0xec, 0xe3, 0xed, 0xdc, 0xca, 0xe1, 0xec, 0xe1, 0xf3, 0xeb, 0xec, 0xfe,
  0xe2, 0xe1, 0xff, 0xe0, 0xe8, 0xff, 0xe9, 0xe9, 0xda, 0xde, 0xf7, 0xee,
  0xec, 0x00, 0xff, 0xeb, 0xef, 0x00, 0xe4, 0xe8, 0xe6, 0xeb, 0xe5, 0xe2,
  0xe9, 0xef, 0xd8, 0xe8, 0xe2, 0xeb, 0xe5, 0xef, 0xeb, 0xef, 0xfe, 0xdd,
  0xee, 0xff, 0xe0, 0xea, 0xfe, 0xec, 0xe4, 0xe4, 0xe1, 0xf8, 0xcd, 0xd9,
  0x00, 0x00, 0xe0, 0xcb, 0xff, 0xda, 0xf3, 0xe7, 0xdd, 0xda, 0xf1, 0xe9,
  0xec, 0xcc, 0xca, 0xda, 0xc6, 0xca, 0xe2, 0xeb, 0xde, 0xfe, 0xea, 0xd4,
  0xff, 0xd2, 0xe8, 0x00, 0xe1, 0xea, 0xd5, 0xd9, 0xf7, 0xd8, 0xdb, 0x00,
  0xff, 0xef, 0xd0, 0xff, 0xdb, 0xf4, 0xeb, 0xe5, 0xdf, 0xf0, 0xea, 0xeb,
  0xd8, 0xdc, 0xdc, 0xd2, 0xce, 0xe1, 0xe8, 0xdc, 0xff, 0xdc, 0xd6, 0x00,
  0xe3, 0xe8, 0xff, 0xeb, 0xe2, 0xd2, 0xd8, 0xf9, 0xdc, 0xdd, 0x00, 0xff,
  0xea, 0xce, 0x00, 0xd8, 0xf3, 0xec, 0xe7, 0xdf, 0xf4, 0xea, 0xe9, 0xda,
  0xea, 0xe1, 0xd4, 0xcf, 0xea, 0xe6, 0xd8, 0xff, 0xe9, 0xdb, 0xff, 0xe4,
  0xee, 0xff, 0xeb, 0xe2, 0xd0, 0xdb, 0xf6, 0xe8, 0xe5, 0x00, 0xfe, 0xec,
  0xd9, 0xff, 0xdf, 0xf0, 0xeb, 0xeb, 0xdf, 0xf3, 0xea, 0xe9, 0xde, 0xe7,
  0xe4, 0xdc, 0xda, 0xea, 0xe6, 0xec, 0xff, 0xe6, 0xe5, 0x00, 0xe6, 0xed,
  0xff, 0xe9, 0xe6, 0xdd, 0xd8, 0xfb, 0xe8, 0xe1, 0x00, 0xff, 0xec, 0xdd,
  0xff, 0xdf, 0xef, 0xe9, 0xef, 0xdf, 0xf3, 0xec, 0xe9, 0xe3, 0xde, 0xe5,
  0xe3, 0xdd, 0xe9, 0xea, 0xe9, 0xfe, 0xe1, 0xe8, 0xff, 0xe7, 0xed, 0xfe,
  0xea, 0xe9, 0xe0, 0xe4, 0xfb, 0xec, 0xe5, 0x00, 0xfe, 0xe2, 0xe5, 0xff,
  0xe2, 0xe7, 0xdf, 0xf2, 0xde, 0xe4, 0xe9, 0xe1, 0xe4, 0xea, 0xe7, 0xef,
  0xd7, 0xec, 0xe7, 0xed, 0xfd, 0xe2, 0xe6, 0x00, 0xd8, 0xea, 0xff, 0xe5,
  0xec, 0xdb, 0xe4, 0xfb, 0xec, 0xea, 0x00, 0xfe, 0xdd, 0xe4, 0xff, 0xe8,
  0xe3, 0xe6, 0xf4, 0xe8, 0xde, 0xe8, 0xe9, 0xdf, 0xe5, 0xe7, 0xed, 0xe2,
  0xf3, 0xeb, 0xee, 0xfe, 0xe2, 0xde, 0x00, 0xdb, 0xe5, 0xff, 0xe4, 0xea,
  0xdb, 0xdf, 0xfb, 0xe9, 0xeb, 0x00, 0xfe, 0xd8, 0xe8, 0xff, 0xe6, 0xe3,
  0xe5, 0xee, 0xe5, 0xe1, 0xe9, 0xe7, 0xdc, 0xe2, 0xe3, 0xed, 0xe0, 0xf1,
  0xea, 0xec, 0xff, 0xdf, 0xe2, 0x00, 0xda, 0xe6, 0xff, 0xe5, 0xe8, 0xdf,
  0xde, 0xf9, 0xea, 0xe9, 0x00, 0xfe, 0xdb, 0xe2, 0xff, 0xe8, 0xe3, 0xd4,
  0xf2, 0xe5, 0xdb, 0xe7, 0xee, 0xe0, 0xed, 0xe6, 0xec, 0xdb, 0xf4, 0xe9,
  0xec, 0xff, 0xdf, 0xdd, 0x00, 0xe3, 0xe6, 0xff, 0xeb, 0xec, 0xd6, 0xdf,
  0xf9, 0xed, 0xe9, 0x00, 0xff, 0xe0, 0xe6, 0x00, 0xeb, 0xe7, 0xdc, 0xed,
  0xe7, 0xd9, 0xeb, 0xf2, 0xdb, 0xcf, 0xe6, 0xec, 0xe3, 0xf0, 0xed, 0xef,
  0xfe, 0xdc, 0xe5, 0x00, 0xe3, 0xe9, 0xff, 0xe8, 0xe9, 0xec, 0xe4, 0xf8,
  0xdc, 0xea, 0x01, 0xff, 0xcd, 0xcb, 0xfe, 0xde, 0xef, 0xe2, 0xe4, 0xe3,
  0xed, 0xe8, 0xe7, 0xd1, 0xd0, 0xdf, 0xc1, 0xd4, 0xed, 0xeb, 0xe7, 0xfe,
  0xe5, 0xd0, 0x00, 0xc2, 0xe2, 0x00, 0xe4, 0xed, 0xe6, 0xde, 0xfa, 0xde,
  0xe4, 0x00, 0xff, 0xef, 0xd5, 0xfd, 0xe1, 0xf5, 0xed, 0xed, 0xe5, 0xed,
  0xe6, 0xef, 0xdf, 0xdc, 0xe4, 0xd6, 0xcf, 0xf3, 0xe9, 0xeb, 0xfe, 0xdf,
  0xd4, 0x00, 0xe3, 0xe2, 0xfe, 0xec, 0xe9, 0xd7, 0xd9, 0xf9, 0xdf, 0xea,
  0x00, 0xff, 0xea, 0xda, 0xfe, 0xdb, 0xf4, 0xec, 0xf0, 0xde, 0xf0, 0xea,
  0xec, 0xdb, 0xde, 0xe6, 0xd7, 0xd2, 0xec, 0xe6, 0xec, 0xff, 0xe2, 0xde,
  0x00, 0xe3, 0xec, 0xff, 0xeb, 0xea, 0xda, 0xdb, 0xf9, 0xe3, 0xe8, 0x00,
  0xfd, 0xe9, 0xdd, 0xff, 0xde, 0xf0, 0xed, 0xf1, 0xdf, 0xf5, 0xe9, 0xe8,
  0xdc, 0xe1, 0xe2, 0xde, 0xce, 0xf0, 0xe5, 0xf0, 0xfe, 0xe1, 0xe5, 0xff,
  0xe5, 0xed, 0xff, 0xe9, 0xe7, 0xe8, 0xe2, 0xfa, 0xe3, 0xe5, 0x00, 0xfe,
  0xe9, 0xe5, 0xff, 0xd8, 0xef, 0xed, 0xf1, 0xde, 0xf1, 0xe6, 0xee, 0xdf,
  0xe6, 0xe5, 0xe6, 0xc6, 0xef, 0xe6, 0xef, 0xfe, 0xe2, 0xe5, 0xff, 0xe3,
  0xeb, 0xff, 0xeb, 0xeb, 0xdc, 0xe1, 0xfb, 0xe8, 0xe2, 0x00, 0xfd, 0xd9,
  0xde, 0xfe, 0xdb, 0xe8, 0xed, 0xef, 0xdd, 0xf3, 0xe5, 0xdf, 0xdc, 0xeb,
  0xe7, 0xe5, 0xcf, 0xee, 0xe6, 0xe6, 0xfd, 0xdd, 0xe6, 0x00, 0xd3, 0xea,
  0xff, 0xe9, 0xea, 0xe1, 0xe3, 0xfa, 0xe6, 0xe9, 0x00, 0xfe, 0xe0, 0xe2,
  0xff, 0xe4, 0xe6, 0xe9, 0xeb, 0xe9, 0xe1, 0xe8, 0xe4, 0xde, 0xec, 0xe7,
  0xe7, 0xd9, 0xf4, 0xe9, 0xe6, 0xfe, 0xde, 0xe6, 0x00, 0xd6, 0xeb, 0xff,
  0xe7, 0xec, 0xdc, 0xe5, 0xfa, 0xe8, 0xeb, 0x00, 0xfe, 0xe0, 0xe6, 0xfe,
  0xe8, 0xe5, 0xe7, 0xed, 0xe7, 0xe1, 0xea, 0xe7, 0xdd, 0xe8, 0xe3, 0xe7,
  0xde, 0xf4, 0xea, 0xe7, 0xfe, 0xe1, 0xe3, 0xff, 0xdc, 0xec, 0xff, 0xe7,
  0xe9, 0xe1, 0xe7, 0xf8, 0xe7, 0xeb, 0x00, 0xfe, 0xdc, 0xe4, 0xff, 0xe9,
  0xe5, 0xe6, 0xf2, 0xe8, 0xda, 0xe5, 0xe8, 0xe1, 0xe9, 0xe5, 0xe9, 0xd5,
  0xf3, 0xe9, 0xea, 0xfe, 0xdc, 0xe2, 0xff, 0xdf, 0xeb, 0xff, 0xe9, 0xed,
  0xdb, 0xdf, 0xf9, 0xec, 0xed, 0x00, 0xff, 0xec, 0xe9, 0xff, 0xea, 0xe9,
  0xe3, 0xec, 0xe7, 0xdd, 0xe9, 0xf0, 0xdf, 0xe4, 0xe6, 0xed, 0xdc, 0xf0,
  0xef, 0xeb, 0xfe, 0xde, 0xeb, 0xff, 0xe2, 0xeb, 0xff, 0xea, 0xe9, 0xea,
  0xe8, 0xf9, 0xc2, 0xe1, 0x00, 0xff, 0xd4, 0xbf, 0xfe, 0xdd, 0xf6, 0xe8,
  0xda, 0xe6, 0xf1, 0xe6, 0xe6, 0xd4, 0xcc, 0xe0, 0xa9, 0xc1, 0xeb, 0xeb,
  0xdd, 0xff, 0xea, 0xd3, 0x00, 0xbf, 0xe1, 0x00, 0xe5, 0xef, 0xdd, 0xdc,
  0xfb, 0xd3, 0xe0, 0x00, 0x00, 0xf1, 0xc6, 0xfc, 0xe2, 0xf5, 0xec, 0xd5,
  0xe6, 0xf1, 0xe8, 0xea, 0xdf, 0xd5, 0xe3, 0xc0, 0xd7, 0xed, 0xe9, 0xdd,
  0xfd, 0xe4, 0xd3, 0x00, 0xe3, 0xe6, 0x00, 0xeb, 0xe8, 0xd4, 0xd9, 0xfb,
  0xd5, 0xe6, 0x00, 0xff, 0xed, 0xd1, 0xfd, 0xdb, 0xf4, 0xee, 0xd3, 0xe3,
  0xf4, 0xe6, 0xe7, 0xd6, 0xd7, 0xdd, 0xc9, 0xde, 0xef, 0xe5, 0xdb, 0xff,
  0xe0, 0xd7, 0xff, 0xe3, 0xec, 0xff, 0xea, 0xe3, 0xe0, 0xce, 0xf8, 0xd7,
  0xeb, 0x00, 0xfe, 0xee, 0xda, 0xfe, 0xd8, 0xf0, 0xea, 0xdc, 0xe2, 0xf2,
  0xe7, 0xe9, 0xdc, 0xda, 0xdf, 0xd0, 0xe1, 0xf0, 0xe5, 0xde, 0xfe, 0xe0,
  0xe4, 0xff, 0xe3, 0xef, 0xff, 0xe9, 0xe1, 0xec, 0xdd, 0xf7, 0xe4, 0xe5,
  0x00, 0xfd, 0xef, 0xe4, 0xfe, 0xd9, 0xef, 0xe8, 0xd6, 0xdf, 0xea, 0xe4,
  0xeb, 0xe3, 0xb7, 0xe6, 0xd9, 0xe9, 0xec, 0xe6, 0xe0, 0xff, 0xdf, 0xd6,
  0xff, 0xe4, 0xed, 0xff, 0xea, 0xe8, 0xe1, 0xe0, 0xfa, 0xea, 0xe6, 0x00,
  0xfd, 0xf1, 0xeb, 0xff, 0xd4, 0xe9, 0xdb, 0xdb, 0xd8, 0xef, 0xe1, 0xec,
  0xdf, 0xd0, 0xe7, 0xd7, 0xe4, 0xe5, 0xe8, 0xdd, 0xfe, 0xde, 0xdf, 0x00,
  0xe0, 0xed, 0xff, 0xe7, 0xe9, 0xe0, 0xcc, 0xf9, 0xeb, 0xe8, 0x00, 0xfe,
  0xf0, 0xec, 0xfe, 0xe8, 0xe4, 0xd5, 0xce, 0xe3, 0xc5, 0xe7, 0xea, 0xe3,
  0xd5, 0xea, 0xe2, 0xd8, 0xef, 0xe8, 0xe4, 0xfe, 0xd9, 0xde, 0x00, 0xe2,
  0xed, 0xff, 0xe8, 0xe8, 0xd6, 0xd5, 0xfa, 0xed, 0xec, 0x00, 0xff, 0xe3,
  0xe6, 0xfd, 0xed, 0xe1, 0xcc, 0xdc, 0xe4, 0xbb, 0xef, 0xe6, 0xe7, 0xdc,
  0xe9, 0xe6, 0xd8, 0xf2, 0xec, 0xed, 0xfe, 0xdf, 0xdf, 0x00, 0xe2, 0xef,
  0xfe, 0xea, 0xea, 0xd9, 0xe3, 0xf9, 0xed, 0xea, 0x00, 0xfe, 0xdf, 0xe6,
  0xfe, 0xe8, 0xdd, 0xd7, 0xca, 0xe5, 0xc6, 0xe5, 0xe4, 0xe6, 0xe5, 0xea,
  0xe7, 0xd9, 0xef, 0xed, 0xea, 0xfe, 0xdd, 0xe4, 0xff, 0xd9, 0xec, 0xff,
  0xea, 0xea, 0xda, 0xdd, 0xfa, 0xef, 0xe7, 0x00, 0xfe, 0xdd, 0xe9, 0x00,
  0xef, 0xde, 0xd7, 0xd5, 0xe5, 0xc1, 0xed, 0xe9, 0xe3, 0xd6, 0xea, 0xe3,
  0xdb, 0xee, 0xee, 0xef, 0xfd, 0xde, 0xde, 0xff, 0xde, 0xea, 0xfd, 0xe9,
  0xe9, 0xeb, 0xe3, 0xf9, 0xc8, 0xde, 0x00, 0x00, 0xdc, 0xca, 0xff, 0xd3,
  0xe7, 0xdf, 0xda, 0xe2, 0xf0, 0xe6, 0xea, 0xd6, 0xd1, 0xe0, 0xab, 0xc6,
  0xea, 0xea, 0xde, 0xff, 0xe5, 0xce, 0x01, 0xc3, 0xe7, 0xff, 0xe9, 0xf0,
  0xd9, 0xda, 0xf9, 0xdb, 0xdd, 0xff, 0xff, 0xd6, 0xdf, 0xfe, 0xde, 0xee,
  0xea, 0xee, 0xe5, 0xf1, 0xe8, 0xe8, 0xeb, 0xd4, 0xea, 0xc2, 0xd6, 0xe8,
  0xe1, 0xec, 0x00, 0xe1, 0xd5, 0x00, 0xc7, 0xdf, 0xff, 0xea, 0xf0, 0xdb,
  0xe1, 0xfd, 0xdf, 0xe4, 0x00, 0x00, 0xd9, 0xe1, 0xff, 0xde, 0xef, 0xeb,
  0xef, 0xe5, 0xf4, 0xeb, 0xe5, 0xe7, 0xe2, 0xee, 0xd2, 0xd7, 0xef, 0xdd,
  0xed, 0xff, 0xe0, 0xde, 0xff, 0xce, 0xe9, 0xff, 0xea, 0xee, 0xdc, 0xe1,
  0xfc, 0xe0, 0xe8, 0x00, 0xff, 0xde, 0xe0, 0xff, 0xdf, 0xea, 0xed, 0xf1,
  0xe9, 0xf6, 0xec, 0xe5, 0xe2, 0xe3, 0xea, 0xdb, 0xcd, 0xf2, 0xe5, 0xee,
  0xff, 0xe0, 0xde, 0xff, 0xd9, 0xeb, 0xff, 0xeb, 0xec, 0xe7, 0xe6, 0xfc,
  0xde, 0xe6, 0x00, 0xff, 0xe2, 0xe2, 0xff, 0xdc, 0xed, 0xf0, 0xf0, 0xe5,
  0xf0, 0xe9, 0xeb, 0xe4, 0xdb, 0xe7, 0xd9, 0xdc, 0xf5, 0xe6, 0xf0, 0xfe,
  0xe5, 0xe1, 0x00, 0xde, 0xea, 0xff, 0xef, 0xed, 0xea, 0xe3, 0xfb, 0xde,
  0xe7, 0x00, 0xff, 0xe6, 0xeb, 0xff, 0xd7, 0xe5, 0xf0, 0xf0, 0xe2, 0xf7,
  0xe7, 0xe7, 0xe2, 0xdb, 0xe7, 0xde, 0xdd, 0xf2, 0xe8, 0xef, 0xfd, 0xe4,
  0xea, 0x00, 0xdf, 0xea, 0xff, 0xee, 0xe7, 0xea, 0xe1, 0xfa, 0xe4, 0xeb,
  0xff, 0xfe, 0xe9, 0xe7, 0xff, 0xdd, 0xe1, 0xed, 0xf1, 0xe4, 0xf0, 0xe7,
  0xeb, 0xdd, 0xd8, 0xe4, 0xe0, 0xdd, 0xf3, 0xeb, 0xea, 0xfd, 0xe9, 0xeb,
  0x00, 0xe1, 0xed, 0xff, 0xec, 0xe3, 0xed, 0xe4, 0xf9, 0xe1, 0xec, 0x00,
  0xfe, 0xec, 0xe8, 0x00, 0xdd, 0xe0, 0xeb, 0xef, 0xe4, 0xeb, 0xe5, 0xe7,
  0xdc, 0xe5, 0xe1, 0xda, 0xe0, 0xf0, 0xe8, 0xeb, 0xfe, 0xe7, 0xea, 0x00,
  0xe2, 0xee, 0xff, 0xee, 0xe5, 0xe7, 0xe3, 0xf7, 0xd7, 0xea, 0xff, 0xfd,
  0xe9, 0xe5, 0xff, 0xdb, 0xde, 0xe8, 0xea, 0xe2, 0xef, 0xe7, 0xe9, 0xd8,
  0xe6, 0xe0, 0xd9, 0xda, 0xed, 0xe9, 0xea, 0xfe, 0xe7, 0xeb, 0xff, 0xdc,
  0xed, 0xff, 0xeb, 0xe3, 0xe3, 0xdd, 0xf7, 0xe0, 0xe7, 0x00, 0xfe, 0xef,
  0xe6, 0x00, 0xdf, 0xe4, 0xec, 0xe7, 0xe0, 0xdf, 0xed, 0xec, 0xdb, 0xde,
  0xe8, 0xd3, 0xdc, 0xef, 0xe9, 0xea, 0xfd, 0xde, 0xef, 0x00, 0xe0, 0xec,
  0xff, 0xec, 0xe5, 0xe4, 0xe4, 0xf7, 0xbe, 0xd9, 0xff, 0xff, 0xe2, 0xca,
  0x01, 0xd1, 0xeb, 0xeb, 0xc5, 0xd0, 0xf1, 0xe8, 0xe6, 0xce, 0xe7, 0xdf,
  0xb2, 0xc9, 0xe8, 0xec, 0xd7, 0xff, 0xe2, 0xcd, 0x01, 0xc0, 0xe5, 0xff,
  0xea, 0xee, 0xdf, 0xda, 0xf3, 0xe0, 0xe8, 0x00, 0xff, 0xe3, 0xdc, 0x00,
  0xde, 0xf0, 0xf0, 0xf1, 0xe5, 0xf0, 0xea, 0xe7, 0xe9, 0xe4, 0xeb, 0xc8,
  0xdc, 0xf1, 0xe2, 0xed, 0x00, 0xe6, 0xd2, 0xff, 0xce, 0xe8, 0xff, 0xed,
  0xf0, 0xe2, 0xdf, 0xfd, 0xe4, 0xe5, 0x00, 0x00, 0xe0, 0xde, 0xff, 0xe1,
  0xee, 0xef, 0xef, 0xe9, 0xf1, 0xe9, 0xe4, 0xe9, 0xe6, 0xee, 0xe3, 0xdb,
  0xf0, 0xe2, 0xec, 0xfe, 0xe1, 0xd8, 0xff, 0xcd, 0xe5, 0x00, 0xed, 0xf1,
  0xe5, 0xe5, 0xfd, 0xe2, 0xeb, 0xff, 0x00, 0xe3, 0xde, 0xff, 0xe3, 0xed,
  0xf0, 0xf0, 0xe6, 0xf4, 0xec, 0xea, 0xe9, 0xe6, 0xe9, 0xe0, 0xe3, 0xf2,
  0xe4, 0xee, 0xfe, 0xd7, 0xd9, 0xff, 0xd9, 0xe0, 0xff, 0xef, 0xee, 0xea,
  0xe9, 0xfd, 0xe1, 0xe1, 0x00, 0x00, 0xe2, 0xe4, 0x00, 0xe1, 0xea, 0xf0,
  0xf1, 0xe4, 0xef, 0xea, 0xec, 0xe7, 0xed, 0xe8, 0xd9, 0xcb, 0xf2, 0xe7,
  0xef, 0xfe, 0xdd, 0xd5, 0xff, 0xd9, 0xe7, 0xff, 0xf1, 0xef, 0xed, 0xe1,
  0xfe, 0xdf, 0xea, 0x00, 0x00, 0xe2, 0xe9, 0xff, 0xda, 0xe1, 0xec, 0xed,
  0xe2, 0xe0, 0xe8, 0xe9, 0xe6, 0xe0, 0xe7, 0xd9, 0xda, 0xef, 0xea, 0xe4,
  0xfe, 0xdf, 0xe0, 0x00, 0xdc, 0xea, 0xff, 0xed, 0xea, 0xea, 0xe4, 0xfb,
  0xe7, 0xeb, 0xff, 0x00, 0xe1, 0xef, 0x00, 0xe8, 0xde, 0xd8, 0xd4, 0xde,
  0xba, 0xe7, 0xea, 0xe8, 0xda, 0xe9, 0xe5, 0xdc, 0xdc, 0xea, 0xe8, 0xfd,
  0xe2, 0xd9, 0x00, 0xdc, 0xed, 0xfe, 0xeb, 0xea, 0xdc, 0xdf, 0xfa, 0xe6,
  0xf0, 0x00, 0xff, 0xe4, 0xf3, 0xff, 0xeb, 0xdc, 0xe1, 0xd3, 0xe3, 0xb7,
  0xe8, 0xe9, 0xea, 0xdc, 0xe8, 0xeb, 0xd7, 0xeb, 0xeb, 0xe7, 0xfe, 0xe6,
  0xdb, 0x00, 0xdc, 0xef, 0xfe, 0xee, 0xec, 0xe2, 0xdf, 0xf9, 0xe3, 0xe7,
  0x00, 0x00, 0xea, 0xef, 0xff, 0xe7, 0xdb, 0xe0, 0xe3, 0xe5, 0xc6, 0xec,
  0xec, 0xe9, 0xe3, 0xe8, 0xe7, 0xd4, 0xe1, 0xec, 0xe6, 0xfe, 0xe3, 0xdc,
  0x00, 0xdf, 0xec, 0xff, 0xed, 0xec, 0xe0, 0xe5, 0xfa, 0xe9, 0xeb, 0x00,
  0xff, 0xec, 0xe7, 0xff, 0xe7, 0xdd, 0xe1, 0xe1, 0xe0, 0xd2, 0xec, 0xef,
  0xe5, 0xd2, 0xe9, 0xdf, 0xdb, 0xf0, 0xec, 0xea, 0xfe, 0xe4, 0xec, 0x00,
  0xe2, 0xec, 0xfe, 0xee, 0xeb, 0xec, 0xdd, 0xfa, 0xc0, 0xdc, 0x00, 0xff,
  0xe3, 0xd5, 0x00, 0xde, 0xe9, 0xe4, 0xd8, 0xea, 0xef, 0xe7, 0xf1, 0xd2,
  0xd5, 0xe1, 0xb5, 0xce, 0xeb, 0xeb, 0xdb, 0xff, 0xea, 0xc3, 0xff, 0xbf,
  0xe3, 0x00, 0xea, 0xf1, 0xe0, 0xd2, 0xf3, 0xd7, 0xe3, 0x00, 0xff, 0xe3,
  0xe1, 0xff, 0xe4, 0xef, 0xed, 0xf1, 0xe9, 0xf1, 0xe7, 0xe5, 0xef, 0xd7,
  0xed, 0xcd, 0xe8, 0xef, 0xe7, 0xee, 0x00, 0xe7, 0xd6, 0x00, 0xc9, 0xe9,
  0x00, 0xf2, 0xf6, 0xe4, 0xe8, 0xfe, 0xdd, 0xea, 0x00, 0xff, 0xe2, 0xe1,
  0xfe, 0xe4, 0xee, 0xf0, 0xf0, 0xe8, 0xf0, 0xea, 0xe7, 0xec, 0xe9, 0xee,
  0xd8, 0xe0, 0xf1, 0xe4, 0xed, 0xff, 0xe3, 0xd9, 0x01, 0xce, 0xe2, 0x00,
  0xf1, 0xf5, 0xe3, 0xe5, 0xfd, 0xe1, 0xee, 0x00, 0xff, 0xe3, 0xe3, 0xff,
  0xe4, 0xe9, 0xee, 0xf2, 0xe6, 0xf3, 0xee, 0xe9, 0xe8, 0xe5, 0xe9, 0xe1,
  0xe4, 0xee, 0xe7, 0xef, 0xff, 0xe0, 0xe3, 0x00, 0xdc, 0xe4, 0x00, 0xf3,
  0xf4, 0xeb, 0xe3, 0xfc, 0xdf, 0xec, 0xff, 0xfe, 0xe5, 0xe4, 0xff, 0xdf,
  0xe9, 0xee, 0xf1, 0xe1, 0xe9, 0xea, 0xed, 0xe8, 0xe5, 0xe8, 0xd9, 0xee,
  0xe9, 0xe6, 0xf0, 0xfe, 0xe4, 0xdf, 0xff, 0xe2, 0xe9, 0xfe, 0xf2, 0xf4,
  0xe3, 0xe6, 0xfc, 0xd9, 0xea, 0x00, 0xff, 0xe6, 0xef, 0xff, 0xdf, 0xdf,
  0xdc, 0xe3, 0xd9, 0xce, 0xe6, 0xea, 0xe8, 0xd4, 0xe8, 0xd8, 0xde, 0xe3,
  0xe9, 0xe3, 0xfe, 0xde, 0xe4, 0x00, 0xe0, 0xeb, 0xff, 0xeb, 0xf1, 0xe0,
  0xe6, 0xf7, 0xe3, 0xea, 0xff, 0xff, 0xe6, 0xed, 0xff, 0xea, 0xd8, 0xdb,
  0xdf, 0xe0, 0xb8, 0xe1, 0xe9, 0xeb, 0xe1, 0xea, 0xe3, 0xe0, 0xed, 0xea,
  0xec, 0xfe, 0xdd, 0xdd, 0x01, 0xe0, 0xeb, 0xff, 0xe8, 0xef, 0xe1, 0xe3,
  0xf6, 0xe5, 0xeb, 0x00, 0xfd, 0xd8, 0xeb, 0xff, 0xeb, 0xd7, 0xe1, 0xe3,
  0xe1, 0xc6, 0xe1, 0xeb, 0xea, 0xe1, 0xe8, 0xe6, 0xde, 0xeb, 0xea, 0xea,
  0xff, 0xe1, 0xdb, 0x00, 0xda, 0xef, 0xff, 0xea, 0xf1, 0xe2, 0xe6, 0xf5,
  0xde, 0xea, 0x00, 0xfe, 0xd5, 0xea, 0xff, 0xe7, 0xd7, 0xe2, 0xe8, 0xe0,
  0xcb, 0xe8, 0xec, 0xe8, 0xdd, 0xe8, 0xe1, 0xdd, 0xe7, 0xea, 0xe7, 0xfe,
  0xdb, 0xe4, 0x00, 0xd4, 0xec, 0xff, 0xe5, 0xf1, 0xe0, 0xe5, 0xf8, 0xea,
  0xe8, 0x00, 0xfe, 0xdb, 0xf0, 0xfe, 0xeb, 0xdc, 0xeb, 0xe4, 0xdf, 0xce,
  0xef, 0xee, 0xe5, 0xea, 0xe9, 0xe5, 0xda, 0xf0, 0xec, 0xef, 0xff, 0xe1,
  0xea, 0xff, 0xd9, 0xec, 0xff, 0xe9, 0xec, 0xeb, 0xe7, 0xf7, 0xc3, 0xe1,
  0xff, 0xff, 0xe6, 0xcc, 0xff, 0xcf, 0xea, 0xea, 0xd4, 0xe6, 0xf0, 0xe6,
  0xe9, 0xd4, 0xda, 0xe0, 0xbc, 0xc9, 0xeb, 0xeb, 0xd9, 0xff, 0xe7, 0xc7,
  0xff, 0xc2, 0xea, 0xff, 0xe9, 0xf1, 0xdd, 0xd8, 0xef, 0xd9, 0xe0, 0x00,
  0xff, 0xdd, 0xdf, 0xff, 0xe2, 0xed, 0xed, 0xf0, 0xe8, 0xef, 0xea, 0xe3,
  0xeb, 0xe3, 0xec, 0xc7, 0xe2, 0xee, 0xe0, 0xed, 0xfe, 0xea, 0xd6, 0x00,
  0xc3, 0xe9, 0xff, 0xf0, 0xf3, 0xdf, 0xe2, 0xf8, 0xe0, 0xe3, 0x00, 0xfd,
  0xde, 0xdd, 0xfe, 0xe6, 0xea, 0xed, 0xef, 0xe5, 0xf3, 0xea, 0xdd, 0xef,
  0xeb, 0xef, 0xdb, 0xe5, 0xee, 0xe1, 0xeb, 0xff, 0xe3, 0xd7, 0x00, 0xc9,
  0xe4, 0xff, 0xf0, 0xf2, 0xe3, 0xe5, 0xf6, 0xe2, 0xe1, 0x00, 0xfd, 0xe9,
  0xd9, 0xfe, 0xe6, 0xe8, 0xec, 0xf0, 0xe4, 0xf6, 0xec, 0xe0, 0xeb, 0xee,
  0xe9, 0xdd, 0xde, 0xf4, 0xe2, 0xef, 0xff, 0xdd, 0xe0, 0x00, 0xdc, 0xe0,
  0xff, 0xf1, 0xf3, 0xeb, 0xe7, 0xf6, 0xdf, 0xde, 0xff, 0xfd, 0xe5, 0xdf,
  0xfe, 0xe3, 0xe6, 0xe9, 0xf0, 0xe0, 0xf6, 0xec, 0xe4, 0xea, 0xef, 0xe9,
  0xda, 0xd3, 0xf3, 0xe3, 0xf0, 0xfe, 0xde, 0xe1, 0xff, 0xdc, 0xdc, 0xff,
  0xf0, 0xf2, 0xe7, 0xe3, 0xf5, 0xdf, 0xe0, 0xff, 0xfd, 0xe6, 0xe1, 0xff,
  0xdc, 0xdf, 0xe9, 0xef, 0xe5, 0xf6, 0xe9, 0xe5, 0xe8, 0xed, 0xe8, 0xe0,
  0xce, 0xf0, 0xe8, 0xeb, 0xfe, 0xdd, 0xe5, 0x00, 0xdc, 0xe8, 0xff, 0xed,
  0xf1, 0xeb, 0xe2, 0xf2, 0xe0, 0xe8, 0x00, 0xfc, 0xe4, 0xe5, 0xfd, 0xe8,
  0xdd, 0xeb, 0xed, 0xe7, 0xe0, 0xe8, 0xe9, 0xe9, 0xd9, 0xea, 0xe1, 0xd9,
  0xf2, 0xea, 0xe8, 0xfe, 0xe0, 0xd8, 0xff, 0xdd, 0xec, 0xfe, 0xe7, 0xee,
  0xeb, 0xe2, 0xef, 0xe3, 0xea, 0x00, 0xfd, 0xea, 0xea, 0xfe, 0xea, 0xd5,
  0xe6, 0xd9, 0xe6, 0xdf, 0xe9, 0xe7, 0xe7, 0xec, 0xe8, 0xe7, 0xd9, 0xf2,
  0xe9, 0xe8, 0xff, 0xde, 0xda, 0x00, 0xdb, 0xee, 0xff, 0xea, 0xf1, 0xed,
  0xdc, 0xed, 0xe1, 0xe9, 0x00, 0xfc, 0xe9, 0xeb, 0xfe, 0xeb, 0xd8, 0xe6,
  0xe2, 0xe9, 0xd7, 0xe7, 0xe8, 0xea, 0xe8, 0xe9, 0xe8, 0xda, 0xf3, 0xe9,
  0xeb, 0xff, 0xe1, 0xd7, 0xff, 0xde, 0xec, 0xff, 0xeb, 0xf3, 0xe5, 0xdc,
  0xf0, 0xec, 0xec, 0x00, 0xfc, 0xee, 0xee, 0xfe, 0xe9, 0xda, 0xe8, 0xdc,
  0xe6, 0xcb, 0xec, 0xef, 0xe6, 0xe0, 0xea, 0xe2, 0xda, 0xf1, 0xec, 0xeb,
  0xff, 0xdd, 0xe2, 0x00, 0xe0, 0xec, 0x00, 0xea, 0xf1, 0xeb, 0xe1, 0xf3,
  0xce, 0xda, 0x00, 0xff, 0xae, 0xcf, 0xfd, 0xd7, 0xe1, 0xe2, 0xd8, 0xda,
  0xef, 0xe7, 0xea, 0xd7, 0xe2, 0xe0, 0xc5, 0xbe, 0xe3, 0xeb, 0xcd, 0xff,
  0xe3, 0xc9, 0xff, 0xc5, 0xe2, 0xff, 0xc5, 0xf1, 0xdc, 0xde, 0xee, 0xdf,
  0xe7, 0x00, 0xff, 0xb3, 0xe6, 0xfa, 0xe3, 0xea, 0xed, 0xf1, 0xe9, 0xf2,
  0xe5, 0xe8, 0xf0, 0xd9, 0xec, 0xc8, 0xe1, 0xef, 0xe5, 0xeb, 0xff, 0xe0,
  0xc5, 0x00, 0xc6, 0xe3, 0x00, 0xd9, 0xfa, 0xe6, 0xe5, 0xf8, 0xe4, 0xe0,
  0x00, 0xff, 0xca, 0xe2, 0xfd, 0xe8, 0xea, 0xef, 0xf0, 0xe6, 0xf6, 0xea,
  0xe3, 0xf1, 0xe6, 0xef, 0xdd, 0xd9, 0xf2, 0xe1, 0xed, 0xff, 0xe2, 0xcf,
  0x00, 0xcb, 0xe1, 0x00, 0xdc, 0xf8, 0xe7, 0xe8, 0xf4, 0xe3, 0xea, 0xff,
  0xff, 0xd0, 0xe7, 0xfd, 0xe7, 0xe8, 0xed, 0xf3, 0xe8, 0xf3, 0xee, 0xec,
  0xf0, 0xe5, 0xeb, 0xe1, 0xe1, 0xf3, 0xe6, 0xed, 0x00, 0xd9, 0xd8, 0xff,
  0xd2, 0xd9, 0x00, 0xe2, 0xf7, 0xed, 0xe8, 0xf4, 0xe8, 0xe4, 0x00, 0xfe,
  0xd2, 0xec, 0xfe, 0xe5, 0xe6, 0xec, 0xf3, 0xe2, 0xf0, 0xe9, 0xe9, 0xf0,
  0xe4, 0xea, 0xe2, 0xd5, 0xf3, 0xe9, 0xee, 0xff, 0xdc, 0xda, 0xff, 0xd4,
  0xd8, 0x00, 0xe3, 0xf5, 0xed, 0xe5, 0xf4, 0xe9, 0xe7, 0xff, 0xff, 0xcf,
  0xe3, 0xfe, 0xe3, 0xd4, 0xdb, 0xea, 0xe0, 0xd7, 0xe7, 0xe8, 0xf0, 0xe2,
  0xea, 0xe4, 0xe7, 0xee, 0xeb, 0xea, 0xff, 0xeb, 0xe1, 0x00, 0xd6, 0xe7,
  0xff, 0xdd, 0xf2, 0xdf, 0xe8, 0xed, 0xe9, 0xeb, 0xff, 0xff, 0xd8, 0xe8,
  0xfd, 0xea, 0xd1, 0xe3, 0xe9, 0xdd, 0xe6, 0xe1, 0xea, 0xf0, 0xdf, 0xea,
  0xe8, 0xe7, 0xed, 0xee, 0xe4, 0xff, 0xec, 0xe5, 0x00, 0xda, 0xe7, 0xff,
  0xe3, 0xf1, 0xe0, 0xe6, 0xec, 0xe9, 0xec, 0x00, 0xfe, 0xdd, 0xeb, 0xfd,
  0xe9, 0xd1, 0xe3, 0xde, 0xde, 0xe3, 0xe9, 0xe9, 0xed, 0xe4, 0xe8, 0xe4,
  0xe3, 0xef, 0xee, 0xe3, 0xfe, 0xeb, 0xe4, 0xff, 0xdc, 0xea, 0xff, 0xda,
  0xf1, 0xdc, 0xe3, 0xea, 0xe3, 0xec, 0x00, 0xfd, 0xe5, 0xe6, 0xfe, 0xe7,
  0xd1, 0xe0, 0xe8, 0xe1, 0xe5, 0xe8, 0xeb, 0xeb, 0xe3, 0xe8, 0xe3, 0xe0,
  0xec, 0xeb, 0xe0, 0xfe, 0xed, 0xe2, 0xff, 0xe0, 0xe9, 0x00, 0xde, 0xf0,
  0xdd, 0xdf, 0xeb, 0xe7, 0xe9, 0x00, 0xfc, 0xeb, 0xe5, 0xfe, 0xe8, 0xd6,
  0xde, 0xe3, 0xdf, 0xd8, 0xed, 0xf0, 0xe6, 0xe4, 0xe9, 0xe3, 0xce, 0xf1,
  0xed, 0xea, 0xfd, 0xe7, 0xef, 0xff, 0xe6, 0xea, 0x00, 0xe1, 0xf1, 0xe4,
  0xe4, 0xed, 0xd5, 0xca, 0xff, 0x00, 0x81, 0xcb, 0xff, 0xd9, 0xe1, 0xea,
  0xe0, 0xd4, 0xf5, 0xe4, 0xe4, 0xd8, 0xd9, 0xe4, 0xcd, 0xb3, 0xdc, 0xed,
  0xdf, 0xff, 0xda, 0xcc, 0xff, 0xba, 0xde, 0x00, 0xc0, 0xf3, 0xdd, 0xdd,
  0xf4, 0xdd, 0xe5, 0x00, 0x00, 0xe9, 0xd2, 0xff, 0xe2, 0xed, 0xeb, 0xe1,
  0xe5, 0xf3, 0xe9, 0xe5, 0xec, 0xe5, 0xe9, 0xc7, 0xd8, 0xed, 0xea, 0xe2,
  0xff, 0xe1, 0xc8, 0x00, 0xde, 0xe2, 0x00, 0xdf, 0xf4, 0xe0, 0xe4, 0xf6,
  0xda, 0xf0, 0x00, 0xff, 0xe4, 0xd4, 0xff, 0xde, 0xef, 0xef, 0xe6, 0xec,
  0xf6, 0xe8, 0xe1, 0xeb, 0xe5, 0xea, 0xd5, 0xe0, 0xee, 0xe4, 0xe0, 0xff,
  0xeb, 0xd0, 0x00, 0xdf, 0xee, 0xff, 0xdd, 0xf2, 0xe8, 0xe1, 0xf4, 0xd9,
  0xec, 0x00, 0xff, 0xe8, 0xdd, 0xff, 0xdd, 0xea, 0xed, 0xe5, 0xe7, 0xf5,
  0xea, 0xe3, 0xe8, 0xde, 0xe5, 0xd5, 0xe3, 0xed, 0xe3, 0xe1, 0xff, 0xe7,
  0xdc, 0x00, 0xe1, 0xe7, 0x00, 0xde, 0xf0, 0xe3, 0xe3, 0xf2, 0xe5, 0xee,
  0x00, 0xff, 0xeb, 0xeb, 0xff, 0xe1, 0xe7, 0xea, 0xef, 0xe7, 0xec, 0xe3,
  0xf1, 0xe9, 0xe3, 0xe6, 0xe1, 0xe6, 0xf5, 0xe8, 0xed, 0xff, 0xe9, 0xe1,
  0xff, 0xe1, 0xe6, 0xff, 0xe2, 0xf4, 0xe5, 0xdf, 0xf4, 0xe5, 0xf1, 0x00,
  0xff, 0xe2, 0xee, 0xff, 0xdb, 0xdc, 0xea, 0xf1, 0xe8, 0xea, 0xdf, 0xec,
  0xe9, 0xe5, 0xe8, 0xe6, 0xe5, 0xf5, 0xe9, 0xeb, 0xfe, 0xe7, 0xe0, 0xff,
  0xdc, 0xe4, 0x00, 0xdf, 0xf3, 0xe9, 0xe2, 0xf1, 0xe6, 0xf2, 0x00, 0xfe,
  0xd4, 0xee, 0x00, 0xe8, 0xd4, 0xeb, 0xf3, 0xeb, 0xf0, 0xe3, 0xed, 0xec,
  0xea, 0xe9, 0xe3, 0xe0, 0xf6, 0xeb, 0xeb, 0xff, 0xe8, 0xe1, 0x00, 0xd9,
  0xe7, 0x00, 0xe0, 0xf3, 0xeb, 0xe3, 0xf3, 0xea, 0xf0, 0x00, 0xff, 0xdb,
  0xf3, 0x00, 0xea, 0xd5, 0xed, 0xf1, 0xea, 0xee, 0xe8, 0xf0, 0xea, 0xe2,
  0xe9, 0xe7, 0xe1, 0xf4, 0xeb, 0xec, 0xff, 0xe7, 0xe1, 0xff, 0xdc, 0xe9,
  0x00, 0xe1, 0xf4, 0xe6, 0xe6, 0xf2, 0xe6, 0xef, 0x00, 0xfe, 0xdf, 0xf1,
  0xff, 0xe8, 0xd1, 0xe9, 0xf1, 0xeb, 0xf0, 0xe4, 0xee, 0xea, 0xe0, 0xe9,
  0xe7, 0xde, 0xf4, 0xeb, 0xeb, 0xff, 0xe4, 0xdb, 0x00, 0xdc, 0xe6, 0x00,
  0xe3, 0xf5, 0xe4, 0xe1, 0xf2, 0xec, 0xee, 0x00, 0xfd, 0xd7, 0xef, 0xff,
  0xe6, 0xdb, 0xe5, 0xef, 0xe8, 0xdd, 0xec, 0xf0, 0xe7, 0xe6, 0xe9, 0xe3,
  0xd5, 0xf3, 0xec, 0xeb, 0xff, 0xe0, 0xe8, 0x00, 0xde, 0xe6, 0x00, 0xe5,
  0xf4, 0xe5, 0xe6, 0xf1, 0xd5, 0xe8, 0xff, 0x00, 0x84, 0xcc, 0xff, 0xde,
  0xe2, 0xed, 0xe5, 0xe4, 0xf7, 0xe7, 0xe2, 0xda, 0xe2, 0xe3, 0xcf, 0xc8,
  0xe6, 0xee, 0xda, 0x00, 0xe7, 0xc7, 0xff, 0xc6, 0xdf, 0x00, 0xbf, 0xf5,
  0xe3, 0xe4, 0xf5, 0xd3, 0xe7, 0x00, 0x00, 0xea, 0xd3, 0xfd, 0xe1, 0xec,
  0xee, 0xe8, 0xe8, 0xf6, 0xe8, 0xe3, 0xea, 0xec, 0xe8, 0xcd, 0xcf, 0xed,
  0xed, 0xe1, 0xff, 0xe6, 0xb7, 0x00, 0xdf, 0xda, 0x00, 0xd8, 0xf3, 0xe7,
  0xeb, 0xf4, 0xd2, 0xed, 0x00, 0x00, 0xea, 0xd0, 0xff, 0xe1, 0xeb, 0xec,
  0xe6, 0xeb, 0xf6, 0xe7, 0xe1, 0xea, 0xee, 0xea, 0xd4, 0xe3, 0xf2, 0xeb,
  0xe6, 0x00, 0xec, 0xcb, 0xff, 0xe3, 0xe3, 0xff, 0xda, 0xf4, 0xe8, 0xe9,
  0xf1, 0xe3, 0xe8, 0x00, 0x00, 0xec, 0xda, 0xff, 0xe3, 0xe6, 0xee, 0xe9,
  0xe7, 0xf6, 0xe8, 0xe6, 0xea, 0xe6, 0xe7, 0xd5, 0xe4, 0xf0, 0xe8, 0xed,
  0x00, 0xeb, 0xd2, 0x00, 0xe2, 0xdf, 0x00, 0xd7, 0xf4, 0xe4, 0xed, 0xf3,
  0xe9, 0xf8, 0x00, 0xff, 0xed, 0xe5, 0x00, 0xe6, 0xe6, 0xe9, 0xee, 0xe6,
  0xef, 0xde, 0xe8, 0xf0, 0xe4, 0xe9, 0xdf, 0xd8, 0xe9, 0xea, 0xf0, 0xff,
  0xea, 0xc8, 0x00, 0xe3, 0xde, 0x00, 0xda, 0xf5, 0xec, 0xe4, 0xf5, 0xee,
  0xf6, 0x00, 0x00, 0xc5, 0xe9, 0xff, 0xe2, 0xdb, 0xe2, 0xf0, 0xe5, 0xec,
  0xdb, 0xef, 0xef, 0xe2, 0xeb, 0xea, 0xdd, 0xee, 0xed, 0xef, 0x00, 0xe4,
  0xd4, 0x00, 0xcd, 0xd3, 0x00, 0xd4, 0xf1, 0xe7, 0xe7, 0xf4, 0xea, 0xf6,
  0xff, 0x00, 0xbb, 0xed, 0xfe, 0xe8, 0xc3, 0xd9, 0xf2, 0xe5, 0xe7, 0xe4,
  0xec, 0xee, 0xda, 0xea, 0xe9, 0xdb, 0xf3, 0xee, 0xeb, 0x00, 0xdf, 0xd9,
  0x00, 0xcb, 0xd2, 0x00, 0xd1, 0xf1, 0xe2, 0xe8, 0xf3, 0xe9, 0xf6, 0x00,
  0xff, 0xbb, 0xe6, 0x00, 0xeb, 0xc2, 0xdc, 0xed, 0xe4, 0xd4, 0xe9, 0xe7,
  0xeb, 0xd8, 0xe8, 0xe5, 0xdb, 0xf2, 0xed, 0xe9, 0x00, 0xea, 0xde, 0xff,
  0xd2, 0xdd, 0x00, 0xd5, 0xf0, 0xdf, 0xe6, 0xef, 0xeb, 0xe7, 0x00, 0x00,
  0xbf, 0xe0, 0x00, 0xe6, 0xcf, 0xdc, 0xeb, 0xe3, 0xb6, 0xe0, 0xe2, 0xeb,
  0xdf, 0xe8, 0xea, 0xd3, 0xf4, 0xec, 0xe6, 0x00, 0xea, 0xde, 0x00, 0xd1,
  0xd9, 0x01, 0xd4, 0xf1, 0xde, 0xe8, 0xee, 0xec, 0xea, 0x00, 0x00, 0xcf,
  0xe9, 0xff, 0xf1, 0xc7, 0xe5, 0xe9, 0xe8, 0xc8, 0xe4, 0xec, 0xe8, 0xdd,
  0xea, 0xe6, 0xdb, 0xf2, 0xee, 0xef, 0xff, 0xe4, 0xe0, 0x00, 0xd7, 0xde,
  0x00, 0xda, 0xf4, 0xe9, 0xe8, 0xee, 0xe4, 0xed, 0x00, 0x00, 0xdd, 0xdc,
  0x00, 0xe3, 0xea, 0xed, 0xe4, 0xe4, 0xf5, 0xe1, 0xf2, 0xdd, 0xeb, 0xe4,
  0xdb, 0xce, 0xe9, 0xf5, 0xe1, 0x00, 0xdd, 0xbe, 0x00, 0xdc, 0xd2, 0x00,
  0xca, 0xf2, 0xe9, 0xe3, 0xf3, 0xda, 0xf1, 0x00, 0x00, 0xeb, 0xd8, 0xff,
  0xe4, 0xe9, 0xed, 0xec, 0xe6, 0xf4, 0xe5, 0xe2, 0xee, 0xe4, 0xe8, 0xcf,
  0xd9, 0xeb, 0xef, 0xe4, 0x00, 0xdc, 0xc1, 0x00, 0xe0, 0xd6, 0x00, 0xd0,
  0xf2, 0xe6, 0xeb, 0xf4, 0xe0, 0xe9, 0x00, 0xff, 0xe9, 0xd7, 0x00, 0xe5,
  0xe9, 0xee, 0xe4, 0xe9, 0xf5, 0xe5, 0xe2, 0xed, 0xea, 0xec, 0xd8, 0xe0,
  0xf3, 0xeb, 0xe7, 0x00, 0xe8, 0xbf, 0x00, 0xe2, 0xdc, 0x00, 0xd0, 0xf1,
  0xe1, 0xeb, 0xee, 0xeb, 0xf3, 0x00, 0x00, 0xed, 0xdc, 0x00, 0xe6, 0xe2,
  0xec, 0xe5, 0xe9, 0xf1, 0xec, 0xe6, 0xed, 0xea, 0xe8, 0xe5, 0xe3, 0xf0,
  0xea, 0xec, 0xff, 0xe7, 0xd5, 0xff, 0xe3, 0xd7, 0xff, 0xd1, 0xf2, 0xe6,
  0xec, 0xef, 0xf0, 0xf5, 0xff, 0x00, 0xee, 0xe1, 0xff, 0xe8, 0xe3, 0xe7,
  0xeb, 0xe7, 0xe8, 0xdd, 0xe4, 0xf1, 0xe1, 0xea, 0xe8, 0xdc, 0xe2, 0xec,
  0xf1, 0xff, 0xec, 0xd1, 0xff, 0xe3, 0xd8, 0x00, 0xda, 0xf5, 0xe0, 0xe6,
  0xf4, 0xf3, 0xf8, 0x00, 0x00, 0xb7, 0xe1, 0x00, 0xe4, 0xc6, 0xd6, 0xee,
  0xe3, 0xd7, 0xe0, 0xe7, 0xef, 0xd3, 0xeb, 0xea, 0xe5, 0xdc, 0xee, 0xef,
  0xff, 0xe6, 0xdd, 0xff, 0xcc, 0xd5, 0x00, 0xd7, 0xf5, 0xde, 0xe9, 0xf5,
  0xef, 0xf4, 0xff, 0x00, 0xc2, 0xe6, 0x00, 0xeb, 0xc5, 0xd6, 0xf3, 0xe4,
  0xba, 0xe4, 0xe9, 0xef, 0xd6, 0xea, 0xe7, 0xe2, 0xea, 0xee, 0xec, 0xff,
  0xe9, 0xdf, 0x00, 0xd0, 0xd5, 0xff, 0xd0, 0xf3, 0xde, 0xe9, 0xf3, 0xf0,
  0xf0, 0x00, 0x00, 0xbf, 0xe6, 0x00, 0xec, 0xc9, 0xdf, 0xee, 0xe1, 0xbd,
  0xe7, 0xe5, 0xee, 0xe3, 0xe9, 0xe7, 0xde, 0xf0, 0xec, 0xee, 0xff, 0xea,
  0xea, 0xff, 0xd2, 0xd7, 0xff, 0xd0, 0xf2, 0xd9, 0xeb, 0xec, 0xf3, 0xea,
  0x00, 0x00, 0xc4, 0xe6, 0xff, 0xed, 0xc8, 0xd7, 0xe2, 0xdc, 0xb5, 0xe0,
  0xe6, 0xef, 0xde, 0xea, 0xe9, 0xe2, 0xec, 0xed, 0xea, 0x00, 0xe9, 0xe4,
  0xff, 0xd0, 0xd4, 0x00, 0xd4, 0xf4, 0xd4, 0xe9, 0xec, 0xf2, 0xe9, 0x00,
  0x00, 0xd2, 0xe8, 0x00, 0xf3, 0xcc, 0xda, 0xe0, 0xe2, 0xbc, 0xe9, 0xea,
  0xeb, 0xd7, 0xea, 0xe7, 0xdd, 0xf2, 0xef, 0xe8, 0xff, 0xe6, 0xe2, 0xff,
  0xda, 0xd9, 0x00, 0xd9, 0xf2, 0xea, 0xec, 0xeb, 0xe7, 0xec, 0x00, 0x00,
  0xc3, 0xd8, 0xff, 0xe6, 0xe2, 0xea, 0xe2, 0xe6, 0xf2, 0xe3, 0xea, 0xe0,
  0xdc, 0xe6, 0xd9, 0xd1, 0xef, 0xee, 0xdb, 0xff, 0xe9, 0xb8, 0xff, 0xd3,
  0xcc, 0xff, 0xca, 0xf6, 0xe3, 0xe4, 0xf2, 0xe6, 0xec, 0xff, 0xff, 0xe9,
  0xda, 0xfe, 0xe7, 0xe9, 0xea, 0xdd, 0xe9, 0xf2, 0xe5, 0xec, 0xeb, 0xf1,
  0xe7, 0xd9, 0xe9, 0xea, 0xee, 0xe0, 0xff, 0xe6, 0xcc, 0x00, 0xdd, 0xd0,
  0xfe, 0xcd, 0xf3, 0xe5, 0xec, 0xf4, 0xe5, 0xed, 0xff, 0x00, 0xea, 0xda,
  0xff, 0xe5, 0xe7, 0xed, 0xe1, 0xdf, 0xf7, 0xe7, 0xe5, 0xec, 0xef, 0xed,
  0xda, 0xe3, 0xe3, 0xee, 0xe7, 0xff, 0xe6, 0xcd, 0x00, 0xe2, 0xd1, 0xff,
  0xcc, 0xf1, 0xe5, 0xea, 0xf3, 0xed, 0xf5, 0xff, 0x00, 0xeb, 0xe0, 0x00,
  0xe8, 0xde, 0xec, 0xe1, 0xe5, 0xf6, 0xe7, 0xe8, 0xeb, 0xed, 0xe8, 0xe0,
  0xdf, 0xe4, 0xea, 0xec, 0xfe, 0xec, 0xd5, 0x00, 0xe2, 0xdc, 0xff, 0xd1,
  0xf3, 0xe6, 0xed, 0xf3, 0xed, 0xf8, 0x00, 0x00, 0xe9, 0xe3, 0x00, 0xe7,
  0xdd, 0xec, 0xe4, 0xe7, 0xf9, 0xeb, 0xe7, 0xee, 0xec, 0xea, 0xe3, 0xec,
  0xe7, 0xec, 0xec, 0xff, 0xec, 0xd9, 0x00, 0xe1, 0xdb, 0xff, 0xd4, 0xf4,
  0xe5, 0xee, 0xf3, 0xf4, 0xef, 0x00, 0x00, 0xd7, 0xe3, 0xfe, 0xe7, 0xdb,
  0xec, 0xef, 0xe8, 0xef, 0xe4, 0xe6, 0xef, 0xf0, 0xec, 0xed, 0xde, 0xef,
  0xef, 0xf0, 0xfe, 0xea, 0xce, 0x00, 0xdc, 0xd7, 0xff, 0xd8, 0xf5, 0xe4,
  0xec, 0xf3, 0xf2, 0xf2, 0x00, 0x00, 0xd4, 0xe3, 0xff, 0xed, 0xdd, 0xef,
  0xf0, 0xe8, 0xf1, 0xe4, 0xe6, 0xed, 0xed, 0xeb, 0xec, 0xde, 0xf1, 0xef,
  0xee, 0xfe, 0xea, 0xd0, 0x00, 0xda, 0xd6, 0xff, 0xdc, 0xf4, 0xe6, 0xea,
  0xf1, 0xf0, 0xf1, 0x00, 0xff, 0xd9, 0xe1, 0xff, 0xf0, 0xcc, 0xe4, 0xed,
  0xe7, 0xde, 0xe2, 0xe7, 0xed, 0xe5, 0xea, 0xe9, 0xda, 0xf0, 0xee, 0xee,
  0xfe, 0xec, 0xd2, 0xff, 0xdd, 0xda, 0xfe, 0xde, 0xf4, 0xe5, 0xec, 0xf0,
  0xf1, 0xf4, 0x00, 0x00, 0xdb, 0xea, 0xfe, 0xee, 0xd8, 0xe9, 0xf0, 0xea,
  0xdb, 0xdb, 0xeb, 0xed, 0xee, 0xeb, 0xec, 0xe0, 0xf0, 0xef, 0xed, 0xfe,
  0xe8, 0xd4, 0xff, 0xda, 0xd6, 0xff, 0xe0, 0xf6, 0xe7, 0xea, 0xf2, 0xf2,
  0xea, 0x00, 0xff, 0xe6, 0xea, 0xfe, 0xf4, 0xd8, 0xeb, 0xed, 0xea, 0xd7,
  0xe6, 0xf1, 0xe9, 0xe9, 0xeb, 0xe9, 0xdd, 0xf0, 0xee, 0xee, 0xfe, 0xe6,
  0xe2, 0xff, 0xdf, 0xdb, 0xfe, 0xe1, 0xf5, 0xec, 0xea, 0xef, 0xec, 0xf0,
  0xff, 0x00, 0xc2, 0xd0, 0xfe, 0xe7, 0xd9, 0xe6, 0xd5, 0xe5, 0xf3, 0xe2,
  0xe8, 0xdf, 0xd7, 0xdd, 0xdc, 0xd6, 0xea, 0xef, 0xd6, 0xfe, 0xdc, 0xcb,
  0xfe, 0xd9, 0xcf, 0xff, 0xca, 0xf1, 0xe3, 0xe2, 0xf1, 0xee, 0xe3, 0xff,
  0xff, 0xf0, 0xdf, 0xff, 0xe5, 0xe8, 0xe7, 0xde, 0xde, 0xf2, 0xe7, 0xee,
  0xea, 0xee, 0xdb, 0xe2, 0xdb, 0xe6, 0xee, 0xe2, 0xff, 0xe4, 0xcc, 0x00,
  0xe6, 0xc3, 0xff, 0xcc, 0xf2, 0xd8, 0xef, 0xf1, 0xf0, 0xeb, 0xff, 0x00,
  0xee, 0xdf, 0xff, 0xe4, 0xe6, 0xec, 0xda, 0xe5, 0xf1, 0xe3, 0xea, 0xe9,
  0xeb, 0xe4, 0xe1, 0xe5, 0xeb, 0xed, 0xe0, 0xff, 0xe8, 0xd3, 0xff, 0xe7,
  0xdd, 0xff, 0xcc, 0xf0, 0xde, 0xea, 0xf2, 0xef, 0xeb, 0x00, 0xff, 0xed,
  0xe1, 0xff, 0xe8, 0xe2, 0xed, 0xe1, 0xe7, 0xed, 0xe7, 0xeb, 0xe9, 0xed,
  0xe6, 0xe9, 0xe5, 0xf0, 0xee, 0xee, 0xfe, 0xee, 0xe4, 0x00, 0xe9, 0xe7,
  0xff, 0xd4, 0xf2, 0xe9, 0xec, 0xf2, 0xef, 0xea, 0x00, 0xff, 0xee, 0xe8,
  0xff, 0xe5, 0xe2, 0xec, 0xe8, 0xe1, 0xe5, 0xe2, 0xee, 0xeb, 0xf6, 0xe9,
  0xed, 0xe6, 0xe9, 0xed, 0xec, 0xff, 0xeb, 0xe2, 0x00, 0xe8, 0xe5, 0xff,
  0xdc, 0xf2, 0xdd, 0xea, 0xf3, 0xf3, 0xee, 0x00, 0xfe, 0xd7, 0xe6, 0xfe,
  0xe6, 0xdb, 0xef, 0xef, 0xe7, 0xe3, 0xe1, 0xea, 0xef, 0xf8, 0xeb, 0xf1,
  0xe5, 0xe6, 0xf0, 0xf2, 0xfe, 0xe8, 0xe4, 0x00, 0xe1, 0xe5, 0xff, 0xe1,
  0xf8, 0xe1, 0xeb, 0xf4, 0xf3, 0xed, 0x00, 0x00, 0xd2, 0xe7, 0xfd, 0xee,
  0xd2, 0xea, 0xe7, 0xec, 0xd1, 0xdf, 0xe6, 0xef, 0xf4, 0xec, 0xf1, 0xe4,
  0xf0, 0xef, 0xf1, 0xfe, 0xea, 0xdc, 0x00, 0xde, 0xde, 0xff, 0xe3, 0xf6,
  0xe8, 0xeb, 0xf3, 0xf2, 0xee, 0x00, 0xff, 0xda, 0xe6, 0xfe, 0xef, 0xd4,
  0xea, 0xee, 0xe7, 0xd0, 0xe4, 0xe9, 0xec, 0xeb, 0xe9, 0xef, 0xe6, 0xef,
  0xee, 0xf0, 0xfe, 0xea, 0xe4, 0xff, 0xe3, 0xe5, 0xff, 0xe3, 0xf6, 0xe7,
  0xee, 0xf2, 0xf2, 0xec, 0x00, 0xff, 0xd6, 0xe5, 0xfe, 0xed, 0xd0, 0xe6,
  0xeb, 0xe9, 0xd4, 0xe8, 0xe6, 0xeb, 0xec, 0xeb, 0xf0, 0xe1, 0xef, 0xee,
  0xef, 0xff, 0xe8, 0xe0, 0xff, 0xe1, 0xda, 0xff, 0xe3, 0xf7, 0xe9, 0xeb,
  0xf2, 0xf2, 0xea, 0x00, 0xff, 0xe7, 0xee, 0xfd, 0xf2, 0xda, 0xea, 0xe8,
  0xe9, 0xcf, 0xe8, 0xee, 0xea, 0xec, 0xea, 0xed, 0xdb, 0xeb, 0xee, 0xf2,
  0xfd, 0xe4, 0xee, 0x00, 0xe4, 0xdd, 0xff, 0xe4, 0xf7, 0xee, 0xeb, 0xf3,
  0xee, 0xe5, 0xff, 0xff, 0xbf, 0xc8, 0xfd, 0xe9, 0xda, 0xe7, 0xd4, 0xe0,
  0xf2, 0xe3, 0xe1, 0xde, 0xd6, 0xd5, 0xe7, 0xc3, 0xec, 0xf0, 0xdf, 0xfd,
  0xdd, 0xcf, 0xff, 0xdb, 0xcc, 0xff, 0xc6, 0xf4, 0xdd, 0xe5, 0xf4, 0xf2,
  0xe7, 0xff, 0xff, 0xee, 0xdb, 0xff, 0xe8, 0xea, 0xe8, 0xd9, 0xe6, 0xf1,
  0xe6, 0xed, 0xea, 0xe5, 0xdb, 0xe0, 0xdc, 0xf2, 0xf3, 0xe4, 0xff, 0xe9,
  0xce, 0xfe, 0xe6, 0xe4, 0xff, 0xcc, 0xf2, 0xd7, 0xe9, 0xf3, 0xf0, 0xf1,
  0x00, 0xfe, 0xec, 0xde, 0xff, 0xe7, 0xeb, 0xec, 0xd6, 0xe9, 0xf4, 0xe6,
  0xeb, 0xeb, 0xe8, 0xdc, 0xe3, 0xe3, 0xee, 0xf2, 0xdd, 0xfe, 0xef, 0xdc,
  0xff, 0xe8, 0xed, 0xff, 0xce, 0xf1, 0xdf, 0xe9, 0xef, 0xef, 0xea, 0x00,
  0xfe, 0xec, 0xe5, 0xff, 0xe8, 0xe5, 0xf0, 0xe1, 0xe2, 0xf5, 0xe8, 0xec,
  0xea, 0xea, 0xdb, 0xe0, 0xea, 0xee, 0xf0, 0xe5, 0xfd, 0xee, 0xe4, 0xff,
  0xe9, 0xe9, 0xff, 0xd2, 0xef, 0xe5, 0xee, 0xef, 0xee, 0xe8, 0x00, 0xfe,
  0xeb, 0xe9, 0xfe, 0xe7, 0xe4, 0xed, 0xe8, 0xdf, 0xf4, 0xe7, 0xee, 0xeb,
  0xe8, 0xdd, 0xde, 0xea, 0xea, 0xf0, 0xdd, 0xfd, 0xee, 0xe6, 0x00, 0xe8,
  0xe9, 0xff, 0xd2, 0xee, 0xe9, 0xec, 0xef, 0xf3, 0xea, 0xff, 0xfd, 0xec,
  0xec, 0xff, 0xe3, 0xdc, 0xe6, 0xeb, 0xe1, 0xf7, 0xe6, 0xeb, 0xed, 0xe9,
  0xe3, 0xe0, 0xe8, 0xe8, 0xec, 0xdd, 0xfc, 0xec, 0xe5, 0x00, 0xe2, 0xe7,
  0xff, 0xd5, 0xef, 0xe6, 0xec, 0xf1, 0xf0, 0xe9, 0x00, 0xfd, 0xe6, 0xe9,
  0xff, 0xec, 0xe0, 0xe8, 0xef, 0xe3, 0xf8, 0xe8, 0xe7, 0xeb, 0xea, 0xe4,
  0xdf, 0xe9, 0xe6, 0xee, 0xdd, 0xfc, 0xec, 0xea, 0x00, 0xe4, 0xe8, 0xff,
  0xde, 0xeb, 0xe8, 0xea, 0xf2, 0xef, 0xe9, 0xff, 0xfc, 0xe8, 0xe5, 0x00,
  0xed, 0xe0, 0xec, 0xed, 0xe1, 0xf8, 0xec, 0xe7, 0xea, 0xf3, 0xe4, 0xdd,
  0xe3, 0xdf, 0xef, 0xdb, 0xfd, 0xea, 0xe7, 0xff, 0xe5, 0xea, 0xff, 0xdb,
  0xed, 0xe7, 0xed, 0xf0, 0xf0, 0xeb, 0xff, 0xfc, 0xdf, 0xe2, 0x00, 0xeb,
  0xe0, 0xe6, 0xe0, 0xe2, 0xf8, 0xe7, 0xe2, 0xe9, 0xe0, 0xe2, 0xe2, 0xe2,
  0xdb, 0xf1, 0xde, 0xfd, 0xe7, 0xe0, 0x00, 0xe5, 0xe6, 0xfe, 0xd6, 0xee,
  0xe3, 0xe8, 0xef, 0xf1, 0xed, 0x00, 0xfd, 0xe9, 0xe5, 0x00, 0xf0, 0xdd,
  0xe6, 0xea, 0xe0, 0xe1, 0xeb, 0xe7, 0xea, 0xf2, 0xe9, 0xe2, 0xd9, 0xe2,
  0xec, 0xe8, 0xfc, 0xe2, 0xee, 0xfe, 0xe5, 0xe5, 0xfd, 0xdd, 0xf0, 0xea,
  0xee, 0xef, 0xee, 0xe4, 0x00, 0xff, 0xb3, 0xd0, 0xff, 0xe7, 0xd7, 0xed,
  0xce, 0xd7, 0xf2, 0xe2, 0xdc, 0xda, 0xe8, 0xcc, 0xe1, 0xc6, 0xdb, 0xeb,
  0xc4, 0xfe, 0xd6, 0xd1, 0xfe, 0xd9, 0xcf, 0x00, 0xc3, 0xf2, 0xd5, 0xe9,
  0xf4, 0xe8, 0xed, 0xff, 0x00, 0xf0, 0xdb, 0xfe, 0xeb, 0xeb, 0xeb, 0xd1,
  0xda, 0xf0, 0xe5, 0xed, 0xec, 0xef, 0xcc, 0xce, 0xcc, 0xe8, 0xf7, 0xc5,
  0xfd, 0xdb, 0xd5, 0x00, 0xe6, 0xd1, 0xfe, 0xcc, 0xf6, 0xda, 0xed, 0xf2,
  0xeb, 0xef, 0x00, 0xff, 0xed, 0xe2, 0xff, 0xeb, 0xed, 0xee, 0xd1, 0xe0,
  0xf6, 0xea, 0xe9, 0xec, 0xec, 0xd6, 0xdb, 0xdd, 0xeb, 0xf3, 0xc9, 0xfe,
  0xeb, 0xdb, 0x00, 0xe8, 0xea, 0xff, 0xd4, 0xf4, 0xdd, 0xec, 0xee, 0xec,
  0xf3, 0xff, 0xfe, 0xed, 0xe6, 0xff, 0xee, 0xe8, 0xec, 0xd2, 0xdf, 0xf2,
  0xeb, 0xe7, 0xed, 0xed, 0xd7, 0xe1, 0xe4, 0xec, 0xf2, 0xcf, 0xfd, 0xee,
  0xe1, 0x00, 0xe9, 0xeb, 0xff, 0xd3, 0xf4, 0xe8, 0xec, 0xef, 0xef, 0xe9,
  0x00, 0xfe, 0xec, 0xeb, 0xff, 0xed, 0xe9, 0xed, 0xd8, 0xe5, 0xed, 0xe5,
  0xef, 0xed, 0xef, 0xda, 0xed, 0xe6, 0xef, 0xf3, 0xee, 0xfe, 0xed, 0xe9,
  0x00, 0xe8, 0xeb, 0xff, 0xd7, 0xf5, 0xe9, 0xe8, 0xef, 0xf1, 0xef, 0x00,
  0xfe, 0xe9, 0xea, 0xff, 0xe8, 0xde, 0xeb, 0xeb, 0xe9, 0xe5, 0xe7, 0xed,
  0xec, 0xf5, 0xe1, 0xed, 0xe8, 0xf4, 0xee, 0xeb, 0xfe, 0xec, 0xe9, 0x00,
  0xe4, 0xe9, 0xff, 0xe1, 0xf5, 0xeb, 0xec, 0xf2, 0xf1, 0xf0, 0x00, 0xfe,
  0xe5, 0xef, 0xfe, 0xef, 0xdc, 0xee, 0xed, 0xec, 0xeb, 0xe5, 0xef, 0xed,
  0xec, 0xe7, 0xef, 0xe7, 0xf2, 0xef, 0xee, 0xfe, 0xec, 0xec, 0x00, 0xe6,
  0xe9, 0xfe, 0xd9, 0xf5, 0xed, 0xea, 0xf6, 0xf2, 0xf2, 0x00, 0xfe, 0xe5,
  0xef, 0xfe, 0xf2, 0xd9, 0xee, 0xe6, 0xeb, 0xe6, 0xea, 0xea, 0xeb, 0xe9,
  0xe5, 0xf1, 0xeb, 0xf1, 0xed, 0xee, 0xfe, 0xeb, 0xe7, 0xff, 0xe7, 0xe8,
  0xff, 0xdc, 0xf4, 0xec, 0xeb, 0xef, 0xf3, 0xee, 0x00, 0xff, 0xdf, 0xf0,
  0xff, 0xf0, 0xd5, 0xef, 0xed, 0xeb, 0xea, 0xdf, 0xeb, 0xed, 0xe5, 0xe5,
  0xf0, 0xe7, 0xf2, 0xed, 0xee, 0xfe, 0xea, 0xe1, 0xff, 0xe7, 0xe3, 0xfe,
  0xd9, 0xf6, 0xea, 0xea, 0xf1, 0xf4, 0xf1, 0x00, 0xfe, 0xe9, 0xed, 0xfe,
  0xf2, 0xdc, 0xeb, 0xec, 0xe8, 0xd9, 0xe7, 0xea, 0xec, 0xe0, 0xe4, 0xef,
  0xda, 0xef, 0xee, 0xee, 0xfe, 0xe4, 0xe8, 0xff, 0xe7, 0xe5, 0xff, 0xdb,
  0xf6, 0xed, 0xeb, 0xf1, 0xeb, 0xe8, 0x00, 0xff, 0xb3, 0xd9, 0xfe, 0xeb,
  0xcc, 0xe8, 0xdb, 0xdd, 0xef, 0xe5, 0xe7, 0xdf, 0xdc, 0xd1, 0xe2, 0xd4,
  0xe2, 0xe7, 0xb5, 0xfe, 0xd1, 0xd1, 0xff, 0xd9, 0xd8, 0xff, 0xb7, 0xec,
  0xda, 0xeb, 0xf5, 0xef, 0xe8, 0x00, 0xff, 0xbd, 0xe7, 0xfc, 0xee, 0xc8,
  0xe1, 0xf1, 0xe7, 0xef, 0xdc, 0xe8, 0xee, 0xe4, 0xe8, 0xe2, 0xe0, 0xe7,
  0xe6, 0xee, 0xff, 0xe4, 0xcd, 0xff, 0xdd, 0xd5, 0xff, 0xba, 0xfa, 0xdc,
  0xed, 0xf9, 0xf3, 0xee, 0x00, 0xff, 0xc3, 0xe9, 0xfc, 0xee, 0xd0, 0xe9,
  0xf1, 0xee, 0xf7, 0xe2, 0xe6, 0xf1, 0xe5, 0xec, 0xec, 0xe5, 0xf2, 0xe3,
  0xee, 0xff, 0xea, 0xda, 0xff, 0xde, 0xdb, 0x00, 0xc7, 0xf9, 0xe6, 0xec,
  0xf6, 0xf4, 0xf5, 0xff, 0xff, 0xc8, 0xec, 0xfe, 0xed, 0xce, 0xec, 0xf2,
  0xf0, 0xf7, 0xe1, 0xe8, 0xf2, 0xe4, 0xe8, 0xed, 0xed, 0xf3, 0xe8, 0xf0,
  0xfe, 0xe8, 0xd9, 0xff, 0xe1, 0xd6, 0xff, 0xd0, 0xf8, 0xee, 0xed, 0xf5,
  0xf3, 0xf6, 0x00, 0xff, 0xcd, 0xef, 0xff, 0xed, 0xcc, 0xeb, 0xf2, 0xec,
  0xf6, 0xdb, 0xe9, 0xf3, 0xe6, 0xe7, 0xee, 0xed, 0xf6, 0xe8, 0xf1, 0xff,
  0xe5, 0xd6, 0xff, 0xe1, 0xd3, 0xff, 0xd5, 0xf7, 0xee, 0xea, 0xf6, 0xf5,
  0xf7, 0xff, 0xfe, 0xcc, 0xf1, 0x00, 0xe9, 0xd4, 0xeb, 0xf5, 0xeb, 0xf7,
  0xda, 0xe6, 0xf2, 0xeb, 0xe7, 0xf1, 0xea, 0xf2, 0xe9, 0xf1, 0xfd, 0xe4,
  0xd9, 0x00, 0xe0, 0xd4, 0xff, 0xd9, 0xf8, 0xed, 0xec, 0xf5, 0xf4, 0xf6,
  0x00, 0xfe, 0xd5, 0xf3, 0xff, 0xf1, 0xd5, 0xf3, 0xef, 0xeb, 0xf7, 0xd9,
  0xe5, 0xf1, 0xee, 0xe5, 0xf1, 0xe8, 0xf2, 0xea, 0xec, 0xfd, 0xe4, 0xdc,
  0x00, 0xe4, 0xd7, 0xfe, 0xdc, 0xf4, 0xed, 0xea, 0xf4, 0xf4, 0xf8, 0x00,
  0xfe, 0xd8, 0xf0, 0xff, 0xf2, 0xcc, 0xef, 0xee, 0xea, 0xf4, 0xdf, 0xe7,
  0xf0, 0xef, 0xe2, 0xf1, 0xea, 0xf2, 0xea, 0xf1, 0xfd, 0xe0, 0xd5, 0x00,
  0xe6, 0xcb, 0xff, 0xd8, 0xf5, 0xed, 0xeb, 0xf0, 0xf3, 0xf8, 0x00, 0xfe,
  0xd5, 0xee, 0x00, 0xf0, 0xd7, 0xeb, 0xeb, 0xea, 0xf6, 0xdd, 0xe7, 0xf0,
  0xf3, 0xe2, 0xf2, 0xe5, 0xf0, 0xe9, 0xee, 0xfd, 0xe1, 0xd6, 0xff, 0xe7,
  0xd4, 0xff, 0xdb, 0xf6, 0xeb, 0xeb, 0xf2, 0xf2, 0xf8, 0x00, 0xfe, 0xd7,
  0xed, 0x00, 0xf1, 0xdd, 0xf6, 0xe8, 0xe8, 0xe3, 0xe7, 0xea, 0xef, 0xeb,
  0xdb, 0xf1, 0xce, 0xef, 0xea, 0xed, 0xfd, 0xe1, 0xe3, 0x00, 0xe6, 0xe0,
  0xfe, 0xe0, 0xf7, 0xec, 0xea, 0xf2, 0xeb, 0xe4, 0x00, 0xff, 0xd8, 0xe1,
  0xfd, 0xe2, 0xd7, 0xd5, 0xd6, 0xde, 0xf4, 0xdb, 0xf6, 0xdf, 0xdf, 0xcd,
  0xe6, 0xc3, 0xd5, 0xeb, 0xb1, 0xfe, 0xc5, 0xc1, 0xfe, 0xdb, 0xbc, 0xff,
  0xd1, 0xf1, 0xda, 0xe5, 0xee, 0xe5, 0xe5, 0x00, 0xff, 0xf0, 0xe2, 0xfb,
  0xe8, 0xe4, 0xe7, 0xde, 0xdf, 0xf4, 0xe3, 0xed, 0xf0, 0xe7, 0xd3, 0xdd,
  0xc3, 0xde, 0xf3, 0xd2, 0xfe, 0xdd, 0xd9, 0x00, 0xe9, 0xdf, 0x00, 0xe2,
  0xee, 0xd9, 0xe2, 0xf2, 0xe7, 0xed, 0x00, 0xff, 0xea, 0xdd, 0xfd, 0xeb,
  0xeb, 0xea, 0xdc, 0xe7, 0xf2, 0xe4, 0xe9, 0xf0, 0xec, 0xd6, 0xd9, 0xdc,
  0xf0, 0xf1, 0xd2, 0xff, 0xec, 0xd8, 0x00, 0xe9, 0xe5, 0x00, 0xdb, 0xef,
  0xdf, 0xe3, 0xf0, 0xeb, 0xec, 0xff, 0xff, 0xec, 0xe2, 0xfe, 0xea, 0xe8,
  0xed, 0xe5, 0xe7, 0xf3, 0xe6, 0xe7, 0xf1, 0xea, 0xda, 0xeb, 0xdf, 0xf1,
  0xf0, 0xea, 0xff, 0xe8, 0xe2, 0xff, 0xe9, 0xe3, 0xff, 0xd7, 0xf1, 0xe4,
  0xe9, 0xf2, 0xee, 0xf2, 0xff, 0xff, 0xec, 0xec, 0xff, 0xec, 0xe8, 0xf2,
  0xee, 0xe7, 0xf6, 0xe2, 0xe7, 0xf3, 0xea, 0xe1, 0xf0, 0xe7, 0xf2, 0xef,
  0xed, 0xfe, 0xeb, 0xe7, 0x00, 0xe8, 0xe5, 0xff, 0xde, 0xf6, 0xee, 0xec,
  0xf5, 0xf2, 0xf4, 0x00, 0xff, 0xe5, 0xf1, 0xff, 0xe9, 0xe1, 0xf0, 0xef,
  0xe6, 0xf3, 0xe6, 0xdc, 0xf3, 0xdc, 0xe3, 0xf1, 0xe8, 0xee, 0xee, 0xf0,
  0xfd, 0xeb, 0xe8, 0x00, 0xe2, 0xe7, 0xff, 0xd7, 0xf4, 0xef, 0xec, 0xf5,
  0xf1, 0xf2, 0x00, 0xfe, 0xda, 0xf3, 0xff, 0xee, 0xdc, 0xeb, 0xf0, 0xe8,
  0xf0, 0xe8, 0xd4, 0xf2, 0xf1, 0xe3, 0xf4, 0xe7, 0xee, 0xe8, 0xf2, 0xff,
  0xeb, 0xe8, 0x00, 0xdf, 0xe5, 0xfe, 0xd9, 0xf5, 0xed, 0xef, 0xf4, 0xf1,
  0xf6, 0x00, 0xfd, 0xd2, 0xf3, 0xfe, 0xf1, 0xda, 0xed, 0xeb, 0xe7, 0xec,
  0xed, 0xd9, 0xf1, 0xe9, 0xdd, 0xf4, 0xe9, 0xf1, 0xec, 0xf1, 0xfe, 0xe9,
  0xe6, 0xff, 0xe1, 0xe4, 0xff, 0xd6, 0xf4, 0xef, 0xed, 0xf3, 0xf3, 0xf6,
  0xff, 0xfc, 0xc9, 0xf0, 0xfe, 0xf0, 0xcc, 0xe7, 0xec, 0xe8, 0xf5, 0xeb,
  0xd4, 0xf0, 0xf0, 0xde, 0xf4, 0xe6, 0xf0, 0xe5, 0xef, 0xff, 0xeb, 0xe5,
  0xff, 0xdf, 0xdd, 0xff, 0xd3, 0xf6, 0xee, 0xf1, 0xf3, 0xf3, 0xf6, 0xff,
  0xfe, 0xd4, 0xee, 0xfe, 0xef, 0xdb, 0xeb, 0xe0, 0xe6, 0xe1, 0xed, 0xe0,
  0xef, 0xec, 0xd9, 0xf2, 0xcd, 0xef, 0xe8, 0xf1, 0xfe, 0xe7, 0xe8, 0xff,
  0xe1, 0xe0, 0xff, 0xdc, 0xf5, 0xee, 0xed, 0xf1, 0xea, 0xe9, 0xff, 0xff,
  0xb9, 0xde, 0xfd, 0xd6, 0xe9, 0xe1, 0xd5, 0xe0, 0xf0, 0xe4, 0xdd, 0xe5,
  0xe3, 0xd2, 0xe4, 0xd0, 0xdb, 0xeb, 0xb9, 0xff, 0xdf, 0xc4, 0xfe, 0xd5,
  0xdb, 0xff, 0xce, 0xde, 0xe7, 0xe4, 0xed, 0xeb, 0xe8, 0xff, 0xff, 0xd5,
  0xe0, 0xfb, 0xdb, 0xf0, 0xf1, 0xeb, 0xe7, 0xf1, 0xe4, 0xdd, 0xf5, 0xe0,
  0xdb, 0xe0, 0xdd, 0xe5, 0xe5, 0xee, 0xfe, 0xe8, 0xda, 0xff, 0xde, 0xdf,
  0xff, 0xda, 0xf4, 0xe1, 0xea, 0xfa, 0xee, 0xe7, 0xff, 0xff, 0xd1, 0xe7,
  0xfb, 0xdf, 0xee, 0xef, 0xec, 0xec, 0xef, 0xe1, 0xde, 0xf4, 0xea, 0xe2,
  0xef, 0xe5, 0xf1, 0xe6, 0xee, 0xfe, 0xef, 0xce, 0x00, 0xe4, 0xe0, 0x00,
  0xd8, 0xf4, 0xe3, 0xeb, 0xf5, 0xec, 0xee, 0xff, 0xff, 0xe6, 0xea, 0xfc,
  0xdd, 0xe4, 0xec, 0xf0, 0xed, 0xf2, 0xe2, 0xde, 0xf3, 0xe8, 0xe0, 0xf0,
  0xea, 0xf1, 0xe8, 0xf1, 0xfe, 0xee, 0xd8, 0x00, 0xe9, 0xe1, 0xfe, 0xdd,
  0xf0, 0xec, 0xea, 0xf5, 0xee, 0xf4, 0x00, 0xff, 0xe4, 0xee, 0xfd, 0xde,
  0xe4, 0xee, 0xee, 0xe8, 0xf6, 0xe8, 0xde, 0xf3, 0xe6, 0xdf, 0xf2, 0xee,
  0xf4, 0xed, 0xf3, 0xfe, 0xea, 0xe1, 0xff, 0xe8, 0xdc, 0xff, 0xd9, 0xf0,
  0xf6, 0xea, 0xf5, 0xf2, 0xf0, 0xff, 0xfe, 0xe8, 0xf2, 0xfd, 0xdb, 0xdc,
  0xe5, 0xf2, 0xea, 0xf8, 0xec, 0xe9, 0xf4, 0xe8, 0xe0, 0xf4, 0xea, 0xf2,
  0xec, 0xf0, 0xfd, 0xea, 0xe1, 0x00, 0xe6, 0xdb, 0xff, 0xdc, 0xf0, 0xf3,
  0xed, 0xf5, 0xf0, 0xf0, 0xff, 0xfd, 0xe8, 0xf5, 0xfe, 0xe0, 0xdf, 0xe9,
  0xf3, 0xe9, 0xf6, 0xec, 0xe4, 0xf4, 0xf1, 0xe3, 0xf2, 0xe8, 0xf0, 0xee,
  0xf0, 0xfe, 0xeb, 0xe4, 0x00, 0xe7, 0xdb, 0xff, 0xdc, 0xee, 0xf1, 0xf2,
  0xf4, 0xf0, 0xf5, 0xff, 0xfd, 0xeb, 0xf7, 0xfe, 0xdd, 0xd8, 0xe7, 0xee,
  0xe7, 0xf6, 0xee, 0xe7, 0xf4, 0xef, 0xdf, 0xf2, 0xe6, 0xec, 0xec, 0xec,
  0xfe, 0xe9, 0xe6, 0x00, 0xe8, 0xdc, 0x00, 0xdc, 0xed, 0xf1, 0xee, 0xf2,
  0xf2, 0xf5, 0x00, 0xfc, 0xe5, 0xf4, 0xfe, 0xdd, 0xdb, 0xe4, 0xec, 0xe5,
  0xf9, 0xec, 0xe5, 0xf5, 0xeb, 0xe1, 0xf4, 0xe2, 0xf0, 0xed, 0xed, 0xfe,
  0xea, 0xe5, 0x00, 0xe5, 0xdb, 0x00, 0xda, 0xee, 0xef, 0xed, 0xf5, 0xf1,
  0xf6, 0xff, 0xfc, 0xe2, 0xf2, 0xfe, 0xd9, 0xd2, 0xdb, 0xd8, 0xe3, 0xe5,
  0xed, 0xe7, 0xee, 0xf3, 0xdd, 0xf2, 0xcf, 0xec, 0xe2, 0xec, 0xfe, 0xe5,
  0xef, 0xff, 0xe5, 0xdf, 0xff, 0xd9, 0xe5, 0xef, 0xec, 0xf2, 0xe0, 0xe9,
  0x00, 0xff, 0xe2, 0xdf, 0xfc, 0xd4, 0xe9, 0xd3, 0xd8, 0xde, 0xf4, 0xdf,
  0xee, 0xe2, 0xdd, 0xd2, 0xe3, 0xc3, 0xe2, 0xe7, 0xd9, 0xff, 0xda, 0xb6,
  0xff, 0xdd, 0xd3, 0x00, 0xdd, 0xda, 0xeb, 0xe0, 0xe6, 0xe7, 0xe3, 0x00,
  0xff, 0xec, 0xe0, 0xfc, 0xd3, 0xe9, 0xe9, 0xd2, 0xd6, 0xf4, 0xe6, 0xe7,
  0xed, 0xf0, 0xd6, 0xeb, 0xd8, 0xe2, 0xeb, 0xea, 0xfd, 0xd9, 0xb9, 0x00,
  0xe8, 0xd3, 0x00, 0xe6, 0xdd, 0xe0, 0xe0, 0xec, 0xed, 0xeb, 0x00, 0xfd,
  0xe9, 0xe0, 0xfd, 0xd7, 0xe0, 0xe3, 0xe3, 0xde, 0xf7, 0xe2, 0xe3, 0xeb,
  0xe7, 0xda, 0xe4, 0xdc, 0xed, 0xe6, 0xe8, 0xfe, 0xe1, 0xca, 0x00, 0xe9,
  0xda, 0xff, 0xe4, 0xe7, 0xe2, 0xdb, 0xf1, 0xee, 0xeb, 0x00, 0xfe, 0xe7,
  0xe5, 0xff, 0xd4, 0xe1, 0xd4, 0xd9, 0xeb, 0xf8, 0xe1, 0xe4, 0xec, 0xe0,
  0xd9, 0xee, 0xe3, 0xf2, 0xe2, 0xeb, 0xfe, 0xe5, 0xe9, 0x00, 0xe9, 0xe4,
  0xff, 0xde, 0xe1, 0xe8, 0xdf, 0xf1, 0xed, 0xe4, 0x00, 0xfe, 0xe6, 0xe6,
  0xfe, 0xd6, 0xdf, 0xe1, 0xeb, 0xe7, 0xfa, 0xde, 0xe3, 0xf3, 0xdf, 0xe4,
  0xf2, 0xe5, 0xe6, 0xe3, 0xef, 0xfe, 0xe5, 0xdb, 0x00, 0xe8, 0xdf, 0xff,
  0xdf, 0xe5, 0xe0, 0xde, 0xf3, 0xf2, 0xf1, 0x00, 0xfe, 0xe4, 0xe4, 0xfd,
  0xd4, 0xd8, 0xdb, 0xe7, 0xe9, 0xee, 0xe0, 0xe9, 0xf1, 0xe5, 0xe3, 0xf5,
  0xe8, 0xf1, 0xe7, 0xe9, 0xfe, 0xe9, 0xde, 0x00, 0xe4, 0xdd, 0xff, 0xe0,
  0xe5, 0xe3, 0xe5, 0xf0, 0xf2, 0xea, 0x00, 0xfd, 0xe8, 0xf0, 0xfe, 0xe2,
  0xd9, 0xe6, 0xef, 0xeb, 0xf0, 0xe6, 0xe6, 0xf3, 0xe1, 0xe3, 0xf4, 0xe8,
  0xf2, 0xeb, 0xec, 0xfe, 0xeb, 0xd6, 0x00, 0xe8, 0xde, 0xff, 0xe0, 0xe8,
  0xec, 0xe2, 0xf2, 0xf1, 0xe9, 0xff, 0xfd, 0xe0, 0xea, 0xfe, 0xdd, 0xd7,
  0xe4, 0xe9, 0xe9, 0xe7, 0xec, 0xe9, 0xf0, 0xdb, 0xdc, 0xf4, 0xe7, 0xf2,
  0xed, 0xeb, 0xfe, 0xea, 0xe1, 0x00, 0xe9, 0xdc, 0xff, 0xdc, 0xe7, 0xde,
  0xe4, 0xee, 0xf3, 0xed, 0x00, 0xfd, 0xe7, 0xec, 0xff, 0xdc, 0xda, 0xe4,
  0xee, 0xeb, 0xef, 0xeb, 0xe8, 0xf3, 0xde, 0xe2, 0xf4, 0xe6, 0xed, 0xec,
  0xeb, 0xff, 0xeb, 0xdf, 0xff, 0xe9, 0xdd, 0xff, 0xde, 0xe8, 0xdf, 0xe3,
  0xef, 0xf3, 0xe8, 0x00, 0xfc, 0xed, 0xec, 0x00, 0xe3, 0xdd, 0xe4, 0xf1,
  0xe6, 0xe5, 0xf0, 0xec, 0xf1, 0xe4, 0xe1, 0xf2, 0xdc, 0xee, 0xea, 0xef,
  0xff, 0xe6, 0xef, 0x00, 0xea, 0xde, 0xfe, 0xdd, 0xe5, 0xf0, 0xea, 0xf0,
  0xe3, 0xe5, 0x00, 0xff, 0xdf, 0xde, 0xfd, 0xd3, 0xcf, 0xa0, 0xc2, 0xde,
  0xf5, 0xd8, 0xf7, 0xda, 0xdd, 0xd2, 0xe8, 0xd1, 0xe6, 0xe8, 0xe5, 0xfe,
  0xdf, 0xae, 0xfe, 0xde, 0xcf, 0x00, 0xe2, 0xc7, 0xe5, 0xe0, 0xde, 0xeb,
  0xe1, 0xff, 0xff, 0xec, 0xe7, 0xfc, 0xd2, 0xbf, 0x93, 0xd7, 0xd0, 0xf5,
  0xdf, 0xec, 0xec, 0xe3, 0xd8, 0xe2, 0xc9, 0xde, 0xe5, 0xde, 0xff, 0xdd,
  0xa6, 0xff, 0xea, 0xca, 0x00, 0xe6, 0xcf, 0xdc, 0xdd, 0xe5, 0xed, 0xe8,
  0x00, 0xff, 0xe9, 0xe6, 0xff, 0xd8, 0xc3, 0xa4, 0xd7, 0xe1, 0xf5, 0xe9,
  0xe8, 0xe7, 0xdb, 0xdb, 0xe7, 0xdf, 0xf6, 0xe1, 0xdf, 0xff, 0xeb, 0xc6,
  0xff, 0xea, 0xde, 0x00, 0xe2, 0xd2, 0xdd, 0xdf, 0xe9, 0xef, 0xf0, 0x00,
  0xfe, 0xe6, 0xe7, 0xff, 0xda, 0xdf, 0xd3, 0xd9, 0xe8, 0xf6, 0xec, 0xe7,
  0xe8, 0xd8, 0xdc, 0xee, 0xdf, 0xf8, 0xde, 0xe5, 0xff, 0xef, 0xdc, 0x00,
  0xea, 0xe3, 0xff, 0xde, 0xd6, 0xe6, 0xe0, 0xe7, 0xf1, 0xe5, 0xff, 0xfe,
  0xe7, 0xec, 0xff, 0xd7, 0xdf, 0xde, 0xe3, 0xe9, 0xf2, 0xec, 0xea, 0xe7,
  0xdc, 0xdd, 0xf2, 0xea, 0xf6, 0xe2, 0xe8, 0xfe, 0xed, 0xdb, 0x00, 0xe9,
  0xe1, 0xff, 0xdf, 0xdb, 0xdc, 0xe5, 0xf2, 0xf4, 0xe8, 0xff, 0xfe, 0xdf,
  0xe8, 0xfd, 0xd5, 0xdf, 0xe9, 0xf0, 0xe9, 0xf3, 0xeb, 0xe4, 0xea, 0xe3,
  0xe1, 0xf6, 0xee, 0xf3, 0xe9, 0xeb, 0xfe, 0xec, 0xe4, 0x00, 0xe2, 0xe5,
  0xff, 0xe0, 0xe3, 0xd7, 0xe3, 0xf4, 0xf3, 0xe2, 0x00, 0xfd, 0xe6, 0xe5,
  0xfe, 0xdb, 0xde, 0xe2, 0xf1, 0xed, 0xe8, 0xea, 0xe8, 0xeb, 0xf3, 0xe3,
  0xf6, 0xea, 0xf5, 0xe7, 0xec, 0xfd, 0xec, 0xdf, 0x00, 0xe5, 0xe3, 0xff,
  0xe0, 0xe1, 0xd8, 0xe0, 0xf5, 0xf2, 0xe9, 0x00, 0xfc, 0xde, 0xe4, 0xfe,
  0xdd, 0xe1, 0xef, 0xe8, 0xed, 0xed, 0xed, 0xe9, 0xe6, 0xf4, 0xde, 0xf7,
  0xe7, 0xf5, 0xe9, 0xec, 0xfd, 0xeb, 0xe4, 0x00, 0xe6, 0xe5, 0xff, 0xdf,
  0xe4, 0xd7, 0xe3, 0xf2, 0xf1, 0xe3, 0x00, 0xfd, 0xe8, 0xee, 0xfe, 0xd8,
  0xdc, 0xe2, 0xee, 0xec, 0xe7, 0xe6, 0xeb, 0xea, 0xf2, 0xe2, 0xf5, 0xe7,
  0xf1, 0xe6, 0xed, 0xfe, 0xeb, 0xe1, 0xff, 0xe9, 0xe6, 0xff, 0xe2, 0xe2,
  0xce, 0xdd, 0xef, 0xf3, 0xec, 0x00, 0xfc, 0xe5, 0xe6, 0x00, 0xdb, 0xdf,
  0xde, 0xe7, 0xe9, 0xe5, 0xf0, 0xec, 0xe7, 0xce, 0xe1, 0xf3, 0xdb, 0xf1,
  0xe4, 0xeb, 0xfe, 0xe7, 0xed, 0xff, 0xe9, 0xe0, 0xff, 0xda, 0xd8, 0xe8,
  0xdf, 0xf1, 0xe6, 0xec, 0xff, 0xff, 0xd9, 0xe0, 0xfe, 0xd7, 0xee, 0xe1,
  0xc6, 0xea, 0xf6, 0xe4, 0xe6, 0xda, 0xd8, 0xd5, 0xd7, 0xd2, 0xe6, 0xe8,
  0xe5, 0xfe, 0xe3, 0x9c, 0x00, 0xde, 0xc0, 0xff, 0xd9, 0xc3, 0xe3, 0xd9,
  0xe0, 0xf3, 0xe4, 0x00, 0xff, 0xd9, 0xda, 0xff, 0xd5, 0xf2, 0xf1, 0xc0,
  0xe1, 0xf2, 0xea, 0xe4, 0xe8, 0xe7, 0xd9, 0xe1, 0xcf, 0xe5, 0xec, 0xe2,
  0xff, 0xdd, 0xc2, 0xff, 0xe3, 0xdc, 0xff, 0xdf, 0xbe, 0xd6, 0xe3, 0xeb,
  0xf2, 0xe9, 0x00, 0xff, 0xd3, 0xda, 0xfe, 0xd7, 0xee, 0xf1, 0xc7, 0xee,
  0xf4, 0xea, 0xe3, 0xe1, 0xdc, 0xda, 0xe4, 0xde, 0xf4, 0xe8, 0xe4, 0xfe,
  0xe8, 0xd9, 0xff, 0xe3, 0xe1, 0xfe, 0xdc, 0xc8, 0xe2, 0xde, 0xeb, 0xf1,
  0xe9, 0x00, 0xfe, 0xdf, 0xdc, 0xff, 0xd7, 0xe6, 0xef, 0xbf, 0xf1, 0xf3,
  0xed, 0xe7, 0xde, 0xd5, 0xdc, 0xeb, 0xe0, 0xf1, 0xe6, 0xe8, 0xff, 0xe6,
  0xdb, 0x00, 0xe8, 0xdf, 0xfe, 0xd9, 0xcc, 0xe2, 0xe1, 0xed, 0xf0, 0xf1,
  0xff, 0xfd, 0xe0, 0xde, 0xff, 0xd5, 0xe6, 0xe9, 0xe3, 0xec, 0xf4, 0xec,
  0xe6, 0xe6, 0xd5, 0xde, 0xec, 0xe1, 0xec, 0xe5, 0xe4, 0xff, 0xe8, 0xe0,
  0xff, 0xe7, 0xdf, 0xfe, 0xdf, 0xd7, 0xe2, 0xe5, 0xef, 0xf4, 0xec, 0x00,
  0xfd, 0xe1, 0xe8, 0x00, 0xcd, 0xd7, 0xd9, 0xec, 0xea, 0xf4, 0xe9, 0xe8,
  0xe6, 0xd4, 0xdd, 0xf2, 0xde, 0xeb, 0xdf, 0xd4, 0xff, 0xe9, 0xe7, 0x00,
  0xe4, 0xdf, 0xff, 0xe2, 0xd9, 0xde, 0xe2, 0xec, 0xf2, 0xe8, 0xff, 0xfd,
  0xdb, 0xe1, 0x00, 0xcd, 0xd7, 0xeb, 0xdf, 0xeb, 0xef, 0xe8, 0xe7, 0xdf,
  0xee, 0xdb, 0xf2, 0xe7, 0xeb, 0xe4, 0xe1, 0xff, 0xeb, 0xee, 0xff, 0xe6,
  0xe3, 0xfe, 0xdc, 0xd6, 0xd5, 0xe0, 0xf1, 0xf3, 0xdd, 0x00, 0xfd, 0xdc,
  0xe8, 0x00, 0xd3, 0xdb, 0xe5, 0xec, 0xea, 0xed, 0xe8, 0xe6, 0xe7, 0xe1,
  0xde, 0xf3, 0xdb, 0xeb, 0xe5, 0xe6, 0xff, 0xeb, 0xeb, 0x00, 0xe9, 0xe7,
  0xfe, 0xe4, 0xdb, 0xca, 0xe4, 0xf2, 0xf2, 0xe3, 0x00, 0xfd, 0xe5, 0xf3,
  0xff, 0xda, 0xd8, 0xed, 0xf1, 0xeb, 0xed, 0xe7, 0xe9, 0xe9, 0xf4, 0xe0,
  0xf5, 0xe0, 0xf1, 0xe1, 0xed, 0xfe, 0xea, 0xec, 0x00, 0xe7, 0xdd, 0xff,
  0xe4, 0xe1, 0xc8, 0xe5, 0xf4, 0xf3, 0xdd, 0xff, 0xfc, 0xd9, 0xdb, 0x00,
  0xd8, 0xde, 0xe0, 0xde, 0xe7, 0xe5, 0xef, 0xe7, 0xde, 0xef, 0xe0, 0xf3,
  0xd6, 0xee, 0xe3, 0xea, 0xfe, 0xe7, 0xe5, 0x00, 0xe6, 0xdd, 0xfe, 0xe0,
  0xd9, 0xe2, 0xf0, 0xf0, 0xe9, 0xdd, 0x00, 0xff, 0xcc, 0xd7, 0xfe, 0xd0,
  0xef, 0xe5, 0xaa, 0xd6, 0xf4, 0xe5, 0xec, 0xcb, 0xd8, 0xc7, 0xc6, 0xd0,
  0xcf, 0xf3, 0xe0, 0xff, 0xe2, 0xbd, 0xff, 0xe0, 0xb8, 0xfe, 0xe0, 0xc1,
  0xd6, 0xe0, 0xd0, 0xf6, 0xe6, 0x00, 0xff, 0xdd, 0xd4, 0xff, 0xd3, 0xf3,
  0xf2, 0xcd, 0xdd, 0xf2, 0xe5, 0xe4, 0xdb, 0xe4, 0xcb, 0xe7, 0xd1, 0xda,
  0xeb, 0xe5, 0xff, 0xe1, 0xad, 0x00, 0xe0, 0xcc, 0x00, 0xe2, 0xc6, 0xdc,
  0xe0, 0xe6, 0xf5, 0xe7, 0x00, 0xfe, 0xe4, 0xe0, 0xff, 0xda, 0xef, 0xf3,
  0xc8, 0xee, 0xf3, 0xe4, 0xe1, 0xdd, 0xe0, 0xdc, 0xf1, 0xd9, 0xf2, 0xe6,
  0xe4, 0xff, 0xf0, 0xc1, 0x00, 0xe5, 0xdd, 0xff, 0xe3, 0xc7, 0xda, 0xde,
  0xe6, 0xf2, 0xf0, 0x00, 0xff, 0xda, 0xde, 0x00, 0xd8, 0xe8, 0xf1, 0xc7,
  0xf1, 0xf1, 0xe7, 0xe7, 0xdc, 0xf4, 0xdd, 0xf3, 0xe1, 0xf2, 0xe3, 0xe3,
  0xff, 0xeb, 0xdf, 0x00, 0xe9, 0xdb, 0xff, 0xe3, 0xcf, 0xe1, 0xe6, 0xe8,
  0xf3, 0xf5, 0x00, 0xfe, 0xda, 0xdc, 0x01, 0xd6, 0xe7, 0xf1, 0xe1, 0xed,
  0xf3, 0xe8, 0xe8, 0xdf, 0xf1, 0xdb, 0xf1, 0xe6, 0xee, 0xe9, 0xe7, 0xff,
  0xeb, 0xec, 0x00, 0xea, 0xe0, 0xfe, 0xe2, 0xd3, 0xdc, 0xe3, 0xee, 0xf4,
  0xee, 0xff, 0xfd, 0xe7, 0xea, 0x00, 0xd0, 0xde, 0xed, 0xe3, 0xeb, 0xf6,
  0xe5, 0xec, 0xe4, 0xed, 0xdc, 0xef, 0xde, 0xec, 0xe4, 0xe9, 0xfe, 0xed,
  0xe7, 0x00, 0xe6, 0xe5, 0xff, 0xe4, 0xcf, 0xdf, 0xe0, 0xf1, 0xf3, 0xee,
  0xff, 0xfd, 0xe4, 0xe7, 0x00, 0xdc, 0xdc, 0xdc, 0xee, 0xee, 0xf1, 0xea,
  0xec, 0xeb, 0xe1, 0xe0, 0xee, 0xe8, 0xee, 0xe3, 0xe6, 0xfe, 0xef, 0xe9,
  0x00, 0xe8, 0xe7, 0xff, 0xe0, 0xd8, 0xe1, 0xe2, 0xf2, 0xf2, 0xe3, 0x00,
  0xfd, 0xea, 0xeb, 0x00, 0xd6, 0xda, 0xe6, 0xe9, 0xeb, 0xe8, 0xea, 0xea,
  0xe4, 0xdc, 0xdc, 0xf1, 0xe9, 0xed, 0xe8, 0xe9, 0xfe, 0xee, 0xeb, 0x00,
  0xe8, 0xea, 0xff, 0xe4, 0xd9, 0xd4, 0xda, 0xf1, 0xf4, 0xe6, 0xff, 0xfd,
  0xe9, 0xf4, 0xff, 0xdd, 0xd9, 0xef, 0xf0, 0xeb, 0xef, 0xec, 0xeb, 0xe7,
  0xd9, 0xe0, 0xec, 0xef, 0xef, 0xe6, 0xee, 0xfe, 0xec, 0xdf, 0xff, 0xe8,
  0xe6, 0xfe, 0xe3, 0xe5, 0xda, 0xe9, 0xf2, 0xf4, 0xdf, 0xff, 0xfd, 0xea,
  0xec, 0xff, 0xdb, 0xde, 0xed, 0xf2, 0xe8, 0xd6, 0xee, 0xee, 0xdb, 0xf7,
  0xe0, 0xf1, 0xdb, 0xe6, 0xe9, 0xef, 0xff, 0xe8, 0xe6, 0xff, 0xe8, 0xe5,
  0xff, 0xe8, 0xe0, 0xe1, 0xde, 0xf1, 0xe9, 0xe3, 0x00, 0xff, 0xb9, 0xc5,
  0x00, 0xd7, 0xee, 0xe1, 0xa2, 0xcd, 0xf1, 0xe6, 0xe5, 0xb5, 0xc4, 0xae,
  0xca, 0xd8, 0xcd, 0xe9, 0xc8, 0x00, 0xe2, 0xc1, 0xff, 0xdf, 0xc8, 0xff,
  0xd9, 0xbe, 0xd3, 0xdf, 0xd6, 0xf5, 0xe2, 0x00, 0xff, 0xc6, 0xbd, 0x01,
  0xd1, 0xf4, 0xf2, 0xe5, 0xd9, 0xf2, 0xe7, 0xe5, 0xdb, 0xd9, 0xc2, 0xe4,
  0xd6, 0xce, 0xe6, 0xe9, 0xff, 0xe1, 0xc6, 0x00, 0xe1, 0xd5, 0xff, 0xde,
  0xd0, 0xcf, 0xd8, 0xe9, 0xf3, 0xe5, 0x00, 0xff, 0xd0, 0xca, 0x00, 0xdf,
  0xf2, 0xf1, 0xe0, 0xf1, 0xf4, 0xe6, 0xdf, 0xdf, 0xeb, 0xde, 0xeb, 0xe5,
  0xdf, 0xe2, 0xed, 0xff, 0xed, 0xc3, 0xff, 0xe4, 0xe0, 0xff, 0xe1, 0xda,
  0xda, 0xe3, 0xe5, 0xf3, 0xee, 0x00, 0xfe, 0xce, 0xde, 0xff, 0xe0, 0xe9,
  0xf0, 0xeb, 0xf4, 0xee, 0xea, 0xe1, 0xe4, 0xe8, 0xdd, 0xf0, 0xef, 0xf0,
  0xe5, 0xef, 0xff, 0xed, 0xcd, 0x00, 0xe8, 0xe2, 0xff, 0xdf, 0xdf, 0xdd,
  0xe7, 0xef, 0xf3, 0xf2, 0x00, 0xfe, 0xd3, 0xe6, 0x00, 0xde, 0xe8, 0xf0,
  0xef, 0xf1, 0xf6, 0xec, 0xe9, 0xe4, 0xd9, 0xe0, 0xf2, 0xf0, 0xf1, 0xe7,
  0xed, 0xff, 0xed, 0xd4, 0x00, 0xe9, 0xe5, 0xff, 0xe4, 0xe3, 0xee, 0xe8,
  0xf4, 0xf6, 0xee, 0x00, 0xfe, 0xe3, 0xee, 0x00, 0xd8, 0xdf, 0xf3, 0xf1,
  0xee, 0xed, 0xe9, 0xec, 0xe4, 0xd9, 0xe0, 0xec, 0xe8, 0xf1, 0xe9, 0xed,
  0xff, 0xee, 0xe1, 0x00, 0xe6, 0xe7, 0xff, 0xeb, 0xe3, 0xdc, 0xe7, 0xf3,
  0xf6, 0xf1, 0x00, 0xfe, 0xe0, 0xef, 0x00, 0xdd, 0xda, 0xf2, 0xf1, 0xf0,
  0xec, 0xe6, 0xe8, 0xe2, 0xe3, 0xde, 0xf2, 0xe8, 0xec, 0xea, 0xe8, 0xff,
  0xef, 0xe6, 0x00, 0xe9, 0xe5, 0xff, 0xe9, 0xd8, 0xe5, 0xe3, 0xf3, 0xf6,
  0xeb, 0xff, 0xfe, 0xe1, 0xed, 0x00, 0xe1, 0xdb, 0xf2, 0xea, 0xec, 0xe9,
  0xe7, 0xe9, 0xe1, 0xe5, 0xde, 0xf0, 0xea, 0xec, 0xec, 0xe8, 0xfe, 0xed,
  0xe9, 0x00, 0xea, 0xea, 0x00, 0xe3, 0xd8, 0xdc, 0xe2, 0xf0, 0xf5, 0xe3,
  0x00, 0xfe, 0xe2, 0xda, 0x00, 0xd8, 0xdc, 0xf3, 0xee, 0xeb, 0xeb, 0xe8,
  0xed, 0xe0, 0xcf, 0xe2, 0xf1, 0xe8, 0xdb, 0xec, 0xe9, 0xff, 0xec, 0xea,
  0xff, 0xe9, 0xea, 0xff, 0xe6, 0xd9, 0xc6, 0xde, 0xf3, 0xf5, 0xef, 0x00,
  0xfd, 0xde, 0xe8, 0x00, 0xe3, 0xe1, 0xeb, 0xed, 0xe9, 0xdc, 0xed, 0xec,
  0xde, 0xf8, 0xe3, 0xf2, 0xdb, 0xe7, 0xec, 0xf4, 0xff, 0xe9, 0xf1, 0x00,
  0xe9, 0xe6, 0x00, 0xe6, 0xe3, 0xe4, 0xea, 0xf2, 0xed, 0xd8, 0x00, 0x00,
  0x94, 0xbe, 0x00, 0xca, 0xe9, 0xe6, 0xe1, 0xb6, 0xf8, 0xe5, 0xe4, 0xcb,
  0xa8, 0xb9, 0xdc, 0xd9, 0xaf, 0xe4, 0xf2, 0xff, 0xdd, 0xb7, 0x00, 0xd9,
  0xa6, 0x00, 0xc3, 0xcb, 0xba, 0xce, 0xe5, 0xf7, 0xdf, 0x00, 0x00, 0x96,
  0xc6, 0x01, 0xd7, 0xef, 0xf3, 0xf2, 0xec, 0xf7, 0xe4, 0xdc, 0xe6, 0xca,
  0xd9, 0xe8, 0xe8, 0xdd, 0xe6, 0xeb, 0xff, 0xe7, 0xbc, 0x00, 0xda, 0xc6,
  0xff, 0xd3, 0xe1, 0xb4, 0xd8, 0xf6, 0xf6, 0xe9, 0xff, 0xfe, 0xc3, 0xc2,
  0x00, 0xd8, 0xef, 0xf1, 0xec, 0xf0, 0xf9, 0xe6, 0xd6, 0xe1, 0xed, 0xd8,
  0xeb, 0xec, 0xe5, 0xe5, 0xe8, 0xff, 0xe9, 0xc3, 0x00, 0xe1, 0xd4, 0xff,
  0xe3, 0xda, 0xcf, 0xe0, 0xf0, 0xf4, 0xed, 0x00, 0xfe, 0xcf, 0xd5, 0x00,
  0xda, 0xe8, 0xf0, 0xed, 0xf3, 0xf6, 0xee, 0xe1, 0xe3, 0xe2, 0xd3, 0xee,
  0xee, 0xed, 0xe5, 0xea, 0xff, 0xe8, 0xce, 0x00, 0xe6, 0xd2, 0x00, 0xe0,
  0xd9, 0xdc, 0xe9, 0xef, 0xf5, 0xee, 0x00, 0xfe, 0xc0, 0xde, 0x01, 0xd7,
  0xe5, 0xf1, 0xea, 0xeb, 0xf3, 0xe9, 0xdf, 0xe0, 0xdd, 0xd5, 0xef, 0xec,
  0xe7, 0xe8, 0xee, 0xfe, 0xe6, 0xd3, 0x00, 0xe6, 0xd5, 0xff, 0xdb, 0xd6,
  0xdc, 0xe3, 0xf0, 0xf7, 0xf0, 0x00, 0xff, 0xc7, 0xe7, 0x01, 0xd6, 0xd8,
  0xe7, 0xdf, 0xec, 0xec, 0xe6, 0xe0, 0xdd, 0xcc, 0xd8, 0xf2, 0xe3, 0xe6,
  0xe0, 0xee, 0xfe, 0xe2, 0xd8, 0xff, 0xe4, 0xdc, 0xff, 0xd9, 0xd9, 0xdd,
  0xde, 0xeb, 0xf5, 0xf1, 0x00, 0xfe, 0xd8, 0xea, 0x01, 0xd4, 0xd2, 0xca,
  0xe2, 0xef, 0xeb, 0xe6, 0xe4, 0xdb, 0xc5, 0xd8, 0xf3, 0xe9, 0xe6, 0xe1,
  0xef, 0xff, 0xdc, 0xdc, 0x00, 0xe8, 0xde, 0xff, 0xd9, 0xd4, 0xd3, 0xde,
  0xed, 0xf5, 0xf1, 0x00, 0xfe, 0xd3, 0xe5, 0x01, 0xdd, 0xd8, 0xd8, 0xe4,
  0xec, 0xf5, 0xeb, 0xdc, 0xe5, 0xcc, 0xdc, 0xf2, 0xe6, 0xe7, 0xe4, 0xf0,
  0xfe, 0xdc, 0xe0, 0x00, 0xe7, 0xdf, 0xff, 0xd8, 0xd6, 0xdd, 0xe6, 0xeb,
  0xf4, 0xec, 0x00, 0xfe, 0xd1, 0xe5, 0x00, 0xd4, 0xda, 0xe1, 0xd7, 0xe5,
  0xeb, 0xed, 0xe0, 0xd7, 0xdc, 0xd9, 0xf1, 0xe0, 0xdb, 0xe2, 0xf0, 0xff,
  0xd3, 0xe9, 0x00, 0xe6, 0xdf, 0xff, 0xdb, 0xcc, 0xe1, 0xe0, 0xe8, 0xf6,
  0xf0, 0x00, 0xfe, 0xdb, 0xe7, 0x01, 0xdd, 0xd7, 0xcd, 0xc9, 0xe8, 0xdb,
  0xeb, 0xe2, 0xd6, 0xc6, 0xd8, 0xf1, 0xd6, 0xe3, 0xe7, 0xf0, 0xff, 0xe5,
  0xe5, 0xff, 0xe9, 0xe1, 0xff, 0xd9, 0xc6, 0xde, 0xe3, 0xe8, 0xec, 0xcb,
  0xff, 0x00, 0xde, 0xb9, 0x00, 0xcb, 0xe1, 0xdb, 0xa9, 0xd5, 0xf5, 0xe7,
  0xf7, 0xbc, 0x92, 0xbc, 0xdf, 0xd9, 0xdd, 0xe4, 0xda, 0xfd, 0xe5, 0xc5,
  0xff, 0xe0, 0xd1, 0xff, 0xe8, 0xbc, 0xc4, 0xc6, 0xe7, 0xf6, 0xce, 0x00,
  0xfe, 0xea, 0xca, 0xff, 0xd1, 0xe7, 0xdb, 0xb7, 0xdf, 0xf4, 0xe4, 0xea,
  0xd0, 0xa5, 0xc7, 0xe7, 0xe5, 0xd1, 0xe7, 0xe3, 0xff, 0xdd, 0xc9, 0xff,
  0xe9, 0xe0, 0xff, 0xe8, 0xb5, 0xb7, 0xbd, 0xec, 0xf3, 0xe3, 0xff, 0xfd,
  0xe5, 0xc9, 0x01, 0xd9, 0xec, 0xe8, 0xb1, 0xef, 0xf3, 0xe5, 0xe6, 0xcf,
  0x96, 0xc9, 0xeb, 0xe9, 0xed, 0xe8, 0xe2, 0xff, 0xe8, 0xc8, 0xfe, 0xe9,
  0xea, 0xff, 0xe2, 0xbc, 0xb9, 0xcc, 0xe7, 0xf1, 0xea, 0x00, 0xfe, 0xe4,
  0xcf, 0x00, 0xd7, 0xe9, 0xe9, 0xd7, 0xf2, 0xf2, 0xe8, 0xe5, 0xd7, 0xb1,
  0xd1, 0xee, 0xe4, 0xea, 0xe1, 0xe2, 0xfe, 0xe7, 0xdb, 0xfe, 0xe9, 0xe7,
  0xfe, 0xe6, 0xc6, 0xcc, 0xdc, 0xec, 0xf3, 0xd9, 0x00, 0xfe, 0xe5, 0xd3,
  0x00, 0xd4, 0xe9, 0xed, 0xe3, 0xef, 0xf2, 0xe7, 0xe7, 0xd9, 0xe1, 0xd8,
  0xf2, 0xeb, 0xf1, 0xe3, 0xe9, 0xfe, 0xeb, 0xe5, 0xff, 0xe9, 0xe7, 0xff,
  0xe9, 0xd2, 0xbb, 0xd0, 0xec, 0xf6, 0xed, 0x00, 0xfd, 0xdd, 0xda, 0x00,
  0xd8, 0xe3, 0xf3, 0xeb, 0xee, 0xeb, 0xe3, 0xe8, 0xde, 0xec, 0xe0, 0xf5,
  0xf1, 0xeb, 0xe6, 0xea, 0xfe, 0xed, 0xe7, 0x00, 0xe2, 0xe8, 0xff, 0xe8,
  0xda, 0xc5, 0xe4, 0xf0, 0xf6, 0xf1, 0x00, 0xfd, 0xe2, 0xe5, 0xff, 0xdf,
  0xe0, 0xf0, 0xf0, 0xf1, 0xf0, 0xe8, 0xe3, 0xe2, 0xe3, 0xda, 0xf7, 0xea,
  0xf0, 0xe7, 0xec, 0xfe, 0xea, 0xe1, 0xff, 0xe5, 0xe6, 0xff, 0xe7, 0xd9,
  0xcd, 0xde, 0xf0, 0xf6, 0xef, 0x00, 0xfc, 0xe6, 0xe8, 0x00, 0xe0, 0xdd,
  0xf0, 0xec, 0xee, 0xf1, 0xeb, 0xe7, 0xdf, 0xdb, 0xd9, 0xf4, 0xe8, 0xf3,
  0xe6, 0xef, 0xfe, 0xe8, 0xdf, 0xfe, 0xe7, 0xe6, 0xfe, 0xe7, 0xd8, 0xc7,
  0xdc, 0xf0, 0xf5, 0xf2, 0x00, 0xfe, 0xd5, 0xde, 0x00, 0xdc, 0xda, 0xf4,
  0xec, 0xed, 0xeb, 0xe6, 0xe4, 0xdc, 0xd9, 0xdb, 0xf4, 0xe7, 0xf1, 0xe6,
  0xeb, 0xfe, 0xe8, 0xe2, 0x00, 0xe1, 0xe8, 0xfe, 0xe1, 0xd8, 0xca, 0xe2,
  0xf1, 0xf6, 0xed, 0xff, 0xfd, 0xe5, 0xe7, 0x01, 0xdd, 0xe0, 0xed, 0xee,
  0xe6, 0xd7, 0xed, 0xea, 0xd1, 0xf2, 0xdb, 0xf1, 0xdc, 0xe8, 0xe4, 0xf4,
  0xfd, 0xe5, 0xed, 0x00, 0xe2, 0xe7, 0xfd, 0xe6, 0xd5, 0xda, 0xeb, 0xef,
  0xee, 0xc4, 0xff, 0x00, 0xe1, 0xc1, 0x00, 0xcb, 0xec, 0xec, 0xb6, 0xd2,
  0xf7, 0xe8, 0xf3, 0xbd, 0xc4, 0xb8, 0xe3, 0xd4, 0xda, 0xea, 0xe0, 0xfe,
  0xe2, 0xca, 0xff, 0xe0, 0xb5, 0x00, 0xe8, 0xb9, 0xc3, 0xb3, 0xe5, 0xf7,
  0xcb, 0x00, 0x00, 0xe6, 0xb7, 0x01, 0xcb, 0xf0, 0xea, 0xaf, 0xc9, 0xf6,
  0xeb, 0xe9, 0xce, 0xa8, 0xd4, 0xec, 0xdc, 0xd0, 0xe0, 0xec, 0xfe, 0xdc,
  0xca, 0x00, 0xe9, 0xd7, 0x00, 0xe5, 0xc1, 0xbc, 0xb1, 0xea, 0xf4, 0xd0,
  0x00, 0xff, 0xe1, 0xb5, 0x00, 0xd5, 0xee, 0xe9, 0xa8, 0xe6, 0xf4, 0xe8,
  0xe6, 0xcf, 0xae, 0xc8, 0xeb, 0xe8, 0xf4, 0xdd, 0xe8, 0xff, 0xe6, 0xc8,
  0x00, 0xe8, 0xef, 0xff, 0xda, 0xb6, 0xbb, 0xba, 0xe7, 0xf2, 0xe5, 0x00,
  0xff, 0xe1, 0xcd, 0x00, 0xda, 0xec, 0xe0, 0xe8, 0xe9, 0xf5, 0xe9, 0xe3,
  0xda, 0xbd, 0xdf, 0xef, 0xe9, 0xf3, 0xdf, 0xed, 0xff, 0xe9, 0xe7, 0x00,
  0xe8, 0xef, 0xff, 0xe0, 0xd2, 0xd1, 0xcc, 0xef, 0xf3, 0xdb, 0x00, 0xff,
  0xe3, 0xda, 0xff, 0xd3, 0xeb, 0xec, 0xec, 0xdd, 0xf7, 0xe2, 0xe5, 0xd7,
  0xbe, 0xe2, 0xf3, 0xec, 0xe2, 0xe5, 0xee, 0xff, 0xe6, 0xe3, 0x00, 0xe8,
  0xed, 0xff, 0xe3, 0xd7, 0xe5, 0xce, 0xf4, 0xf6, 0xe4, 0x00, 0xff, 0xdc,
  0xe8, 0xff, 0xd1, 0xe3, 0xf0, 0xed, 0xe1, 0xf2, 0xe1, 0xdf, 0xd8, 0xcb,
  0xe0, 0xf4, 0xe7, 0xdf, 0xe4, 0xec, 0xfe, 0xe1, 0xe6, 0xff, 0xdc, 0xeb,
  0x00, 0xdd, 0xd8, 0xeb, 0xda, 0xf4, 0xf2, 0xe9, 0x00, 0xfe, 0xd4, 0xed,
  0x00, 0xdb, 0xe2, 0xe6, 0xe5, 0xea, 0xf1, 0xea, 0xe2, 0xd8, 0xcb, 0xda,
  0xf3, 0xe2, 0xea, 0xe6, 0xeb, 0xff, 0xde, 0xe4, 0x00, 0xdf, 0xea, 0xff,
  0xd2, 0xd0, 0xf6, 0xeb, 0xf2, 0xf3, 0xdd, 0x00, 0xfe, 0xc9, 0xe1, 0x00,
  0xd0, 0xe3, 0xf1, 0xc8, 0xe1, 0xf3, 0xe5, 0xe4, 0xd3, 0xda, 0xd4, 0xf5,
  0xe5, 0xda, 0xe3, 0xe9, 0xff, 0xd7, 0xe6, 0x00, 0xe3, 0xe9, 0xff, 0xd2,
  0xc6, 0xf1, 0xd5, 0xf0, 0xee, 0xde, 0xff, 0xfe, 0xd6, 0xdc, 0xff, 0xd9,
  0xe0, 0xec, 0xe0, 0xeb, 0xe9, 0xe3, 0xe3, 0xda, 0xcf, 0xda, 0xf5, 0xe5,
  0xeb, 0xe0, 0xe4, 0xfe, 0xd4, 0xe2, 0x00, 0xdf, 0xe7, 0xff, 0xda, 0xcc,
  0xe0, 0xd8, 0xf0, 0xf5, 0xe1, 0x00, 0xfe, 0xd8, 0xe6, 0xff, 0xda, 0xe0,
  0xde, 0xd8, 0xea, 0xcf, 0xf0, 0xeb, 0xcd, 0xb1, 0xdc, 0xf3, 0xdb, 0xe9,
  0xe8, 0xf2, 0xfe, 0xde, 0xde, 0x00, 0xe3, 0xe7, 0xff, 0xd3, 0xc8, 0xdc,
  0xdf, 0xee, 0xea, 0xf2, 0xff, 0xff, 0xdb, 0xbe, 0xfd, 0xcf, 0xe8, 0xe8,
  0xb2, 0xe6, 0xf6, 0xe9, 0xf4, 0xc6, 0xa5, 0xc2, 0xe5, 0xd2, 0xdf, 0xe8,
  0xdf, 0xfd, 0xea, 0xc9, 0xfe, 0xde, 0xa7, 0xff, 0xe3, 0xbf, 0xdc, 0xa6,
  0xec, 0xf9, 0xc6, 0x00, 0xff, 0xe6, 0xc0, 0xff, 0xd0, 0xf3, 0xec, 0xcc,
  0xc7, 0xf5, 0xe9, 0xe7, 0xd6, 0xb1, 0xc8, 0xf4, 0xd3, 0xe1, 0xde, 0xed,
  0xff, 0xe7, 0xcb, 0x00, 0xe8, 0xe8, 0xfe, 0xe6, 0xbe, 0xa5, 0xa8, 0xe9,
  0xf5, 0xd1, 0x00, 0xfe, 0xe2, 0xc1, 0xff, 0xd1, 0xf1, 0xf0, 0xdf, 0xdb,
  0xf3, 0xe9, 0xe5, 0xd0, 0xa9, 0xd2, 0xf3, 0xe5, 0xec, 0xe0, 0xea, 0xff,
  0xec, 0xd6, 0xff, 0xe8, 0xea, 0xff, 0xe5, 0xc0, 0xbd, 0xb5, 0xeb, 0xf2,
  0xde, 0x00, 0xfe, 0xe3, 0xd2, 0xfe, 0xd1, 0xed, 0xee, 0xe6, 0xde, 0xf1,
  0xea, 0xe5, 0xd5, 0xd8, 0xd5, 0xf1, 0xe9, 0xf0, 0xde, 0xe9, 0xfe, 0xe2,
  0xdc, 0xff, 0xe7, 0xeb, 0xfe, 0xe1, 0xc5, 0xba, 0xcd, 0xea, 0xf0, 0xe5,
  0x00, 0xfd, 0xe4, 0xde, 0xfe, 0xcb, 0xed, 0xf4, 0xe7, 0xe2, 0xed, 0xe7,
  0xe7, 0xd2, 0xcc, 0xd2, 0xf1, 0xef, 0xe9, 0xe2, 0xeb, 0xfd, 0xe4, 0xdd,
  0x00, 0xe8, 0xeb, 0xfe, 0xdf, 0xcc, 0xcd, 0xbc, 0xee, 0xed, 0xe3, 0x00,
  0xfe, 0xd0, 0xe7, 0xfe, 0xcf, 0xe5, 0xf5, 0xee, 0xe4, 0xf1, 0xe1, 0xe4,
  0xd9, 0xbc, 0xdc, 0xf1, 0xf4, 0xea, 0xe9, 0xe3, 0xfd, 0xe8, 0xe5, 0x00,
  0xce, 0xe9, 0xff, 0xdb, 0xc8, 0xb5, 0xcd, 0xf6, 0xe9, 0xda, 0x00, 0xfd,
  0xca, 0xe7, 0xfe, 0xd5, 0xe4, 0xf2, 0xf0, 0xe4, 0xef, 0xe5, 0xde, 0xdc,
  0xc5, 0xe0, 0xf1, 0xed, 0xe7, 0xe6, 0xe6, 0xfe, 0xe5, 0xe8, 0xff, 0xce,
  0xe8, 0xfe, 0xd3, 0xd2, 0xb7, 0xc6, 0xf5, 0xe6, 0xdf, 0x00, 0xfe, 0xbf,
  0xe5, 0xfd, 0xd0, 0xe2, 0xf0, 0xe9, 0xe6, 0xee, 0xe0, 0xdb, 0xda, 0xbe,
  0xd9, 0xef, 0xe8, 0xe5, 0xe4, 0xe7, 0xfe, 0xe3, 0xec, 0x00, 0xca, 0xe9,
  0xff, 0xc6, 0xc9, 0xc7, 0xce, 0xf0, 0xe8, 0xde, 0x00, 0xfd, 0xc6, 0xe5,
  0xfd, 0xce, 0xde, 0xf5, 0xed, 0xdf, 0xe9, 0xe3, 0xdf, 0xd6, 0xca, 0xdb,
  0xf2, 0xea, 0xe2, 0xe7, 0xe4, 0xff, 0xea, 0xe8, 0xff, 0xcd, 0xea, 0xfe,
  0xce, 0xce, 0xd7, 0xd0, 0xf1, 0xed, 0xe2, 0x00, 0xfd, 0xd0, 0xe5, 0xff,
  0xdd, 0xe2, 0xe7, 0xde, 0xd4, 0xd9, 0xec, 0xe4, 0xd0, 0xb7, 0xd6, 0xf3,
  0xdb, 0xe4, 0xe3, 0xf5, 0xfd, 0xe5, 0xf4, 0x00, 0xd5, 0xe9, 0xff, 0xc9,
  0xc8, 0xd9, 0xd5, 0xef, 0xe4, 0xc2, 0xff, 0xff, 0xdf, 0xc2, 0xfc, 0xcf,
  0xeb, 0xe0, 0xa4, 0xd6, 0xf7, 0xe7, 0xf8, 0xbe, 0xb5, 0xbd, 0xe6, 0xd2,
  0xea, 0xe8, 0xde, 0xfd, 0xe5, 0xd7, 0xfc, 0xe0, 0xd6, 0xff, 0xe6, 0xc5,
  0xd0, 0xac, 0xec, 0xf2, 0xca, 0xff, 0xff, 0xe6, 0xc4, 0xfb, 0xcc, 0xf4,
  0xef, 0x92, 0xc8, 0xf6, 0xea, 0xed, 0xc7, 0x97, 0xba, 0xf4, 0xc8, 0xca,
  0xe0, 0xec, 0xfd, 0xdf, 0xc9, 0xfe, 0xe7, 0xe3, 0xff, 0xe3, 0xbc, 0xc1,
  0xaf, 0xe7, 0xef, 0xda, 0xff, 0xfe, 0xdf, 0xc6, 0xfb, 0xd1, 0xf2, 0xec,
  0xa8, 0xdd, 0xf4, 0xe9, 0xea, 0xce, 0xd1, 0xc9, 0xee, 0xe4, 0xed, 0xdb,
  0xe9, 0xff, 0xe7, 0xd6, 0xff, 0xe6, 0xe6, 0xfe, 0xe3, 0xc3, 0xbe, 0xd8,
  0xe9, 0xed, 0xe7, 0xff, 0xfd, 0xe1, 0xcd, 0xfc, 0xd7, 0xee, 0xe9, 0xad,
  0xdb, 0xf5, 0xe9, 0xea, 0xd1, 0xbf, 0xcc, 0xef, 0xe3, 0xf0, 0xdf, 0xeb,
  0xfd, 0xe3, 0xde, 0xfe, 0xe8, 0xe9, 0xff, 0xe2, 0xc2, 0xd6, 0xd2, 0xec,
  0xe9, 0xe4, 0xff, 0xfe, 0xe0, 0xd0, 0xfc, 0xd3, 0xef, 0xe6, 0xcd, 0xd1,
  0xf5, 0xe6, 0xec, 0xd7, 0xd0, 0xd5, 0xf0, 0xe9, 0xe8, 0xe4, 0xec, 0xfe,
  0xe2, 0xe7, 0x00, 0xe6, 0xe8, 0xff, 0xe2, 0xca, 0xca, 0xcd, 0xf3, 0xdf,
  0xe7, 0xff, 0xfe, 0xe1, 0xe3, 0xfc, 0xcd, 0xe6, 0xe5, 0xcf, 0xca, 0xdc,
  0xe3, 0xee, 0xd6, 0xc6, 0xd6, 0xec, 0xe5, 0xda, 0xe7, 0xe3, 0xfc, 0xe2,
  0xe6, 0x00, 0xe0, 0xe7, 0xfe, 0xde, 0xcd, 0xc8, 0xd3, 0xf0, 0xdd, 0xe8,
  0xff, 0xfc, 0xdb, 0xe6, 0xfd, 0xcd, 0xe5, 0xdf, 0xd8, 0xd3, 0xe3, 0xe2,
  0xed, 0xd6, 0xd2, 0xd0, 0xe7, 0xe8, 0xda, 0xe7, 0xd8, 0xfd, 0xe2, 0xea,
  0xff, 0xe4, 0xe6, 0xff, 0xde, 0xcd, 0xd1, 0xd1, 0xf2, 0xdf, 0xee, 0xff,
  0xfc, 0xe5, 0xe9, 0xfd, 0xd3, 0xe4, 0xdf, 0xde, 0xe2, 0xd4, 0xe9, 0xef,
  0xd5, 0xd9, 0xd4, 0xe5, 0xe8, 0xe9, 0xeb, 0xd8, 0xfd, 0xe3, 0xdd, 0xfd,
  0xe8, 0xe6, 0xff, 0xe4, 0xcf, 0xd5, 0xd2, 0xf0, 0xdd, 0xed, 0xff, 0xfd,
  0xed, 0xe6, 0xff, 0xcd, 0xe4, 0xde, 0xc0, 0xdb, 0xe7, 0xe2, 0xf0, 0xd3,
  0xd8, 0xce, 0xe9, 0xe7, 0xe3, 0xeb, 0xcf, 0xfe, 0xdd, 0xdc, 0xfe, 0xe7,
  0xe4, 0xff, 0xe6, 0xc8, 0xcd, 0xcb, 0xf1, 0xe5, 0xdf, 0xfe, 0xfe, 0xf3,
  0xe3, 0xfc, 0xd0, 0xe8, 0xe9, 0xd3, 0xdb, 0xd8, 0xee, 0xf0, 0xd0, 0xd4,
  0xd8, 0xea, 0xde, 0xdc, 0xe9, 0xda, 0xfc, 0xe6, 0xeb, 0xfe, 0xe8, 0xe8,
  0xff, 0xe5, 0xcf, 0xc7, 0xd2, 0xf0, 0xd0, 0xc9, 0x00, 0xfe, 0xdd, 0xcb,
  0xfb, 0xcd, 0xed, 0xed, 0x9f, 0xd5, 0xf8, 0xea, 0xf6, 0xbc, 0xa6, 0xc1,
  0xe7, 0xb9, 0xde, 0xe3, 0xda, 0xfe, 0xec, 0xd9, 0xfd, 0xe0, 0xe0, 0x00,
  0xe8, 0xd1, 0xd0, 0xbe, 0xed, 0xe1, 0xc2, 0x00, 0xfe, 0xec, 0xc2, 0xfa,
  0xc6, 0xf3, 0xf1, 0xbe, 0xd3, 0xf6, 0xe9, 0xef, 0xc6, 0xd8, 0xc8, 0xf0,
  0xc4, 0xc7, 0xe5, 0xe4, 0xff, 0xe5, 0xd8, 0xff, 0xe9, 0xdb, 0xff, 0xed,
  0xcf, 0xc6, 0xbe, 0xf0, 0xe8, 0xda, 0xff, 0xfe, 0xe7, 0xcd, 0xfc, 0xd5,
  0xf0, 0xf2, 0xab, 0xd5, 0xf3, 0xe6, 0xec, 0xbe, 0xcb, 0xc1, 0xf2, 0xdf,
  0xeb, 0xdf, 0xe4, 0xff, 0xe6, 0xdc, 0xff, 0xe9, 0xe9, 0xff, 0xec, 0xce,
  0xc5, 0xcb, 0xed, 0xe6, 0xf0, 0x00, 0xfe, 0xe5, 0xd2, 0xfd, 0xd6, 0xed,
  0xee, 0xc4, 0xd7, 0xf2, 0xea, 0xed, 0xc8, 0xd8, 0xcb, 0xec, 0xe6, 0xf0,
  0xe2, 0xe9, 0xfe, 0xe6, 0xe3, 0xff, 0xea, 0xea, 0x00, 0xe8, 0xd1, 0xe4,
  0xd3, 0xf0, 0xde, 0xdb, 0xff, 0xfe, 0xe5, 0xdb, 0xfd, 0xd5, 0xed, 0xec,
  0xcc, 0xd2, 0xf5, 0xe2, 0xec, 0xd3, 0xe1, 0xd1, 0xe8, 0xe1, 0xe7, 0xe4,
  0xe9, 0xfd, 0xe2, 0xec, 0x00, 0xe9, 0xe9, 0x00, 0xea, 0xdb, 0xd9, 0xcb,
  0xf4, 0xd7, 0xee, 0x00, 0xfe, 0xe3, 0xe6, 0xff, 0xcb, 0xe3, 0xe7, 0xcd,
  0xc4, 0xc5, 0xdf, 0xee, 0xd1, 0xdc, 0xd4, 0xde, 0xe2, 0xd5, 0xe6, 0xcc,
  0xfd, 0xe6, 0xea, 0x00, 0xdf, 0xe8, 0xff, 0xe0, 0xda, 0xd4, 0xd7, 0xf1,
  0xd9, 0xed, 0x00, 0xfc, 0xe2, 0xec, 0xfd, 0xd4, 0xe2, 0xe4, 0xe1, 0xd3,
  0xde, 0xe4, 0xea, 0xdd, 0xde, 0xd3, 0xdc, 0xeb, 0xe1, 0xea, 0xdc, 0xfe,
  0xe5, 0xe9, 0x00, 0xdb, 0xe5, 0xff, 0xd6, 0xd9, 0xd8, 0xd5, 0xf3, 0xd8,
  0xed, 0x00, 0xfc, 0xe4, 0xeb, 0xfe, 0xd4, 0xdc, 0xc8, 0xe1, 0xde, 0xd3,
  0xde, 0xed, 0xe3, 0xe1, 0xd7, 0xda, 0xef, 0xd8, 0xe8, 0xe2, 0xfe, 0xe7,
  0xd1, 0xff, 0xe4, 0xe8, 0x00, 0xe0, 0xd8, 0xdf, 0xd5, 0xf4, 0xd3, 0xe8,
  0x00, 0xfe, 0xd9, 0xea, 0xfe, 0xc5, 0xdd, 0xd8, 0xd9, 0xcc, 0xc4, 0xd7,
  0xe7, 0xd9, 0xe3, 0xd3, 0xd7, 0xe2, 0xda, 0xe6, 0xd3, 0xff, 0xdd, 0xd8,
  0x00, 0xd9, 0xdf, 0xff, 0xcc, 0xd5, 0xdc, 0xd7, 0xee, 0xd9, 0xdc, 0x00,
  0xfd, 0xe7, 0xea, 0xfc, 0xcc, 0xe0, 0xd8, 0xe4, 0xcf, 0xce, 0xf0, 0xec,
  0xd6, 0xd8, 0xd3, 0xd9, 0xe0, 0xd2, 0xe4, 0xe8, 0xfd, 0xdf, 0xef, 0xff,
  0xe0, 0xe3, 0xfe, 0xd8, 0xd4, 0xcd, 0xda, 0xee, 0xc6, 0xc7, 0x00, 0xff,
  0xd8, 0xc1, 0xfb, 0xba, 0xf2, 0xf1, 0xb2, 0xdb, 0xf6, 0xe8, 0xf2, 0xc7,
  0xc0, 0xc3, 0xe5, 0xbf, 0xd2, 0xe4, 0xe4, 0xfe, 0xe6, 0xc7, 0xfd, 0xde,
  0xe6, 0xff, 0xe8, 0xcd, 0xd6, 0xa4, 0xed, 0xd9, 0xd0, 0x00, 0xff, 0xed,
  0xbf, 0xf9, 0xbf, 0xf0, 0xf3, 0xa8, 0xd1, 0xf5, 0xe7, 0xef, 0xb8, 0xb8,
  0xc6, 0xf2, 0xcb, 0xd7, 0xdd, 0xe1, 0xfe, 0xe6, 0xdf, 0x00, 0xea, 0xe6,
  0x00, 0xeb, 0xc2, 0xcf, 0xbe, 0xf2, 0xe0, 0xda, 0x00, 0xfe, 0xea, 0xc4,
  0xfb, 0xd3, 0xee, 0xf6, 0xc9, 0xd4, 0xf4, 0xea, 0xeb, 0xc7, 0xcf, 0xbf,
  0xf0, 0xdf, 0xeb, 0xdb, 0xe6, 0xff, 0xe3, 0xd8, 0x00, 0xeb, 0xef, 0x00,
  0xe4, 0xca, 0xcf, 0xbf, 0xf3, 0xe2, 0xe8, 0x00, 0xfe, 0xea, 0xd0, 0xfe,
  0xd9, 0xec, 0xf1, 0xd6, 0xd7, 0xf1, 0xec, 0xed, 0xd0, 0xdf, 0xcf, 0xe8,
  0xe6, 0xee, 0xdc, 0xe5, 0xfe, 0xe5, 0xeb, 0x00, 0xeb, 0xef, 0x00, 0xe5,
  0xd5, 0xe1, 0xd4, 0xf6, 0xdc, 0xdd, 0x00, 0xfe, 0xea, 0xd8, 0xff, 0xd1,
  0xeb, 0xef, 0xd1, 0xd3, 0xf5, 0xe8, 0xec, 0xcc, 0xcd, 0xd1, 0xe8, 0xe1,
  0xe2, 0xe0, 0xeb, 0xfe, 0xdc, 0xe3, 0x00, 0xea, 0xed, 0x00, 0xe5, 0xd6,
  0xd9, 0xd5, 0xf8, 0xd9, 0xee, 0x00, 0xff, 0xd7, 0xe9, 0xff, 0xc9, 0xe3,
  0xe1, 0xd7, 0xcc, 0xe3, 0xe1, 0xee, 0xc9, 0xd5, 0xd3, 0xdb, 0xdf, 0xda,
  0xe6, 0xde, 0xfe, 0xd9, 0xe5, 0x00, 0xdf, 0xea, 0x00, 0xd5, 0xdc, 0xdb,
  0xd8, 0xf8, 0xd6, 0xf0, 0x00, 0xfe, 0xd9, 0xed, 0xff, 0xc6, 0xe2, 0xe0,
  0xd0, 0xc3, 0xc3, 0xd9, 0xed, 0xc7, 0xd9, 0xcf, 0xd4, 0xd7, 0xd4, 0xe6,
  0xd7, 0xfe, 0xd2, 0xd9, 0x00, 0xdb, 0xe9, 0xff, 0xd1, 0xd9, 0xde, 0xda,
  0xf3, 0xd6, 0xf2, 0x00, 0xfd, 0xd7, 0xef, 0xff, 0xcc, 0xdf, 0xec, 0xd6,
  0xc8, 0xc5, 0xe5, 0xeb, 0xca, 0xe5, 0xd2, 0xdf, 0xd9, 0xd4, 0xe9, 0xdf,
  0xfe, 0xd7, 0xe0, 0x00, 0xd9, 0xea, 0x00, 0xd2, 0xdb, 0xe2, 0xe0, 0xf2,
  0xd1, 0xee, 0x00, 0xfe, 0xd6, 0xee, 0xff, 0xc7, 0xdb, 0xda, 0xcf, 0xc7,
  0xbe, 0xec, 0xec, 0xc4, 0xe1, 0xd1, 0xda, 0xd4, 0xd4, 0xe5, 0xdd, 0xff,
  0xd3, 0xcf, 0x00, 0xd9, 0xe8, 0x00, 0xcb, 0xda, 0xdc, 0xdb, 0xf1, 0xde,
  0xe3, 0x00, 0xfd, 0xe5, 0xe9, 0xff, 0xd1, 0xdf, 0xe3, 0xd4, 0xd2, 0xbf,
  0xee, 0xf1, 0xd0, 0xe0, 0xcd, 0xe1, 0xde, 0xd5, 0xe5, 0xe1, 0xfe, 0xde,
  0xe7, 0xff, 0xdf, 0xe8, 0xff, 0xd9, 0xd6, 0xd3, 0xdc, 0xf2, 0x00, 0x00,
  0x00, 0x00, 0x00, 0x00, 0x00, 0x00, 0x00, 0x00, 0xb2, 0xf6, 0xff, 0xff,
  0x04, 0x00, 0x00, 0x00, 0x08, 0x00, 0x00, 0x00, 0xff, 0xff, 0xff, 0xff,
  0x5e, 0x01, 0x00, 0x00, 0x00, 0x00, 0x00, 0x00, 0x00, 0x00, 0x00, 0x00,
  0x00, 0x00, 0x00, 0x00, 0xd2, 0xf6, 0xff, 0xff, 0x04, 0x00, 0x00, 0x00,
  0x8c, 0x00, 0x00, 0x00, 0xcf, 0x8a, 0x6d, 0xc0, 0x3d, 0xfb, 0x81, 0xc0,
  0x56, 0x8b, 0x95, 0xc0, 0xf5, 0x56, 0x9e, 0xc0, 0x91, 0x5e, 0xae, 0xc0,
  0x08, 0xea, 0xa5, 0xc0, 0x9f, 0xab, 0xcc, 0xc0, 0x5e, 0xe4, 0xb2, 0xc0,
  0xab, 0x81, 0x8b, 0xc0, 0xf4, 0x28, 0xa2, 0xc0, 0x9d, 0xd2, 0xab, 0xc0,
  0x8b, 0x71, 0xa8, 0xc0, 0x2a, 0x27, 0xa3, 0xc0, 0x40, 0x6f, 0x95, 0xc0,
  0xb4, 0x6a, 0x9b, 0xc0, 0x9c, 0xf1, 0xb4, 0xc0, 0xbb, 0x2c, 0xdb, 0xc0,
  0x3a, 0xf6, 0xaa, 0xc0, 0x62, 0xfd, 0x87, 0xc0, 0xdd, 0x72, 0xa7, 0xc0,
  0x9e, 0x3e, 0x8d, 0xc0, 0xb9, 0x84, 0x7e, 0xc0, 0xa6, 0xad, 0x83, 0xc0,
  0x56, 0xf9, 0x77, 0xc0, 0x78, 0xed, 0x8a, 0xc0, 0x27, 0xfb, 0x5a, 0xc0,
  0x01, 0x5f, 0x86, 0xc0, 0x6d, 0x12, 0xa7, 0xc0, 0x38, 0xf6, 0x44, 0xc0,
  0x35, 0xa0, 0x64, 0xc0, 0xbd, 0x2f, 0x43, 0xc0, 0x5e, 0xb4, 0x42, 0xc0,
  0xb6, 0x14, 0x53, 0xc0, 0xc7, 0x0b, 0x5c, 0xc0, 0x44, 0x6b, 0x73, 0xc0,
  0x00, 0x00, 0x00, 0x00, 0x00, 0x00, 0x00, 0x00, 0x72, 0xf7, 0xff, 0xff,
  0x04, 0x00, 0x00, 0x00, 0x80, 0x01, 0x00, 0x00, 0x8c, 0xab, 0x76, 0xbd,
  0xbb, 0x3a, 0x6d, 0xbd, 0x0d, 0x64, 0x93, 0x3d, 0x6d, 0x6d, 0xd4, 0x3d,
  0x66, 0xff, 0x3b, 0xbd, 0xc5, 0xd4, 0x45, 0xbd, 0x7a, 0x49, 0x0f, 0xbd,
  0xc2, 0x03, 0x39, 0x3e, 0x9f, 0xdd, 0x2b, 0x3e, 0x13, 0xa2, 0x0f, 0x3d,
  0x74, 0x2d, 0x12, 0xbe, 0x77, 0x02, 0x1b, 0xbe, 0xa7, 0x57, 0x82, 0x3d,
  0xef, 0xa1, 0xd5, 0xbd, 0xc5, 0xd4, 0xbf, 0x3d, 0xd9, 0x85, 0x70, 0xbe,
  0x68, 0xfa, 0xb8, 0x3d, 0x71, 0x25, 0xd6, 0x3d, 0x3a, 0xb4, 0xed, 0x3d,
  0x4d, 0xfc, 0x81, 0x3d, 0x0b, 0x3e, 0x96, 0x3d, 0x7c, 0xeb, 0xc0, 0x3c,
  0x7a, 0x3a, 0xcc, 0xbd, 0x89, 0xa6, 0x86, 0xbe, 0x2f, 0x2d, 0x23, 0x3e,
  0x3b, 0xd8, 0x0f, 0xbd, 0xd5, 0xda, 0xdf, 0x3a, 0x24, 0x87, 0x61, 0x3d,
  0x9d, 0x4c, 0x3b, 0x3c, 0x3d, 0xb0, 0x0b, 0x3c, 0x60, 0x6a, 0x45, 0x3c,
  0x1d, 0xd8, 0xdc, 0xbc, 0x01, 0xaf, 0x5c, 0xbd, 0xad, 0x0f, 0xaa, 0xbe,
  0x28, 0xd6, 0xc7, 0x3c, 0xe6, 0x4d, 0x21, 0x3d, 0x53, 0x06, 0x49, 0x3e,
  0x82, 0x9d, 0x2c, 0x3e, 0x70, 0xf8, 0x37, 0x3d, 0x5d, 0xb7, 0xfe, 0xbd,
  0xee, 0x2d, 0x29, 0xbe, 0x6c, 0x90, 0x88, 0xbc, 0x31, 0x00, 0x93, 0xbb,
  0xe0, 0xd6, 0xbe, 0x3d, 0xec, 0x2e, 0x96, 0xbc, 0xee, 0xf1, 0x78, 0xbd,
  0x22, 0x50, 0x6b, 0xbd, 0x32, 0x75, 0xb4, 0xbb, 0xc6, 0xab, 0xc1, 0xbc,
  0x18, 0x98, 0x81, 0xbb, 0xde, 0xb6, 0x33, 0xbc, 0x35, 0x93, 0x39, 0x3c,
  0x6d, 0x06, 0x3b, 0xbd, 0x91, 0x65, 0x3a, 0xbd, 0x7b, 0xb8, 0x37, 0x3d,
  0x94, 0x77, 0x11, 0x3d, 0x31, 0x1d, 0xfd, 0xbd, 0x84, 0xc4, 0x79, 0xbd,
  0x68, 0x1c, 0x55, 0x3c, 0xad, 0xbe, 0x9f, 0x3e, 0x21, 0x4a, 0x70, 0xbd,
  0xbd, 0x2c, 0x58, 0x3b, 0xe5, 0x12, 0x07, 0xbd, 0x5e, 0xec, 0x82, 0x3d,
  0xf4, 0x6c, 0x5c, 0xbc, 0x1c, 0x0c, 0x7f, 0x3c, 0x48, 0x7f, 0x48, 0xbd,
  0x69, 0x08, 0x0b, 0xbb, 0xf7, 0x92, 0x0f, 0x3d, 0x2a, 0xf5, 0x36, 0x3e,
  0x3d, 0x85, 0x4c, 0xbd, 0xe9, 0xac, 0x93, 0xbd, 0xaf, 0x09, 0xfc, 0x3c,
  0x6d, 0x72, 0xa5, 0xbd, 0x49, 0x87, 0x9e, 0x3d, 0x5f, 0xb6, 0xd0, 0xbc,
  0x50, 0xdc, 0xae, 0x3d, 0x08, 0xde, 0xf6, 0x3d, 0xdb, 0xbf, 0xae, 0x3d,
  0xa0, 0x86, 0x21, 0xbd, 0x6a, 0xc2, 0x1c, 0xbe, 0xe2, 0xa0, 0xe9, 0xbd,
  0x15, 0x88, 0x2f, 0xbc, 0xc9, 0x55, 0x2e, 0xbe, 0xef, 0xf8, 0x52, 0xba,
  0xd4, 0x09, 0xba, 0xbc, 0x9d, 0x9c, 0xca, 0x3c, 0x9f, 0x85, 0x58, 0x3c,
  0x3c, 0x34, 0x19, 0xbd, 0x5c, 0xc6, 0xcf, 0xba, 0x1d, 0x8c, 0x28, 0x3c,
  0x41, 0x46, 0xd1, 0xbb, 0x93, 0xd3, 0xa9, 0x3d, 0xf1, 0xde, 0x20, 0x3e,
  0xcd, 0x47, 0xc7, 0xbd, 0xfd, 0x6a, 0x07, 0xbe, 0x00, 0x00, 0x00, 0x00,
  0x02, 0xf9, 0xff, 0xff, 0x04, 0x00, 0x00, 0x00, 0x78, 0x05, 0x00, 0x00,
  0xbd, 0x00, 0xbd, 0x01, 0xa9, 0xf5, 0xf2, 0x91, 0xd5, 0xeb, 0xab, 0xb1,
  0xdd, 0xe1, 0xcb, 0xb9, 0xce, 0xf1, 0xc0, 0xc3, 0xd0, 0xc3, 0xd1, 0xc4,
  0xc6, 0xba, 0xaf, 0xdb, 0x81, 0xa3, 0xde, 0xc2, 0xf4, 0xc6, 0x01, 0xf8,
  0x83, 0xfa, 0xe2, 0xfc, 0xca, 0xfb, 0xd7, 0xd4, 0x08, 0xf2, 0xe4, 0xa6,
  0xf9, 0x0d, 0xb1, 0xfe, 0xfd, 0xff, 0xed, 0xca, 0xd4, 0xf2, 0xe8, 0xcf,
  0x05, 0xdd, 0xbe, 0xce, 0x0b, 0x01, 0xe2, 0xdb, 0xe4, 0xbd, 0xac, 0xef,
  0xb7, 0xf5, 0x81, 0xd5, 0xff, 0x90, 0xcb, 0xc8, 0xe8, 0xa5, 0xbc, 0xe6,
  0xd0, 0xcc, 0xc7, 0xbb, 0xab, 0xf0, 0xe0, 0xfe, 0xf4, 0xcf, 0xbb, 0xf1,
  0x02, 0xd9, 0xb9, 0xb3, 0xc7, 0xcb, 0xec, 0x9c, 0xd1, 0x01, 0xf2, 0xdc,
  0xb3, 0xd7, 0xf6, 0x05, 0xfa, 0x81, 0x04, 0x9a, 0x8d, 0x9c, 0xf8, 0xea,
  0xfd, 0xb1, 0xe4, 0xe6, 0xfd, 0xbe, 0xdc, 0xf3, 0xd8, 0xda, 0xd1, 0xd8,
  0xd6, 0x81, 0x00, 0xda, 0xbe, 0xe8, 0xbb, 0xb6, 0xd3, 0xb3, 0xdf, 0xbf,
  0x97, 0xfa, 0x01, 0xb5, 0xd0, 0xb2, 0xaf, 0xd9, 0xe8, 0xe1, 0xeb, 0xce,
  0xe6, 0x9a, 0xbf, 0xf1, 0xf9, 0xcf, 0xa8, 0x08, 0xa9, 0xe8, 0xff, 0xf9,
  0xf5, 0xc2, 0xf5, 0x03, 0xdd, 0xa0, 0xef, 0xf8, 0xed, 0x00, 0xde, 0xf4,
  0x81, 0xe2, 0x02, 0xe9, 0xf9, 0xfc, 0x02, 0xfc, 0xb2, 0xf2, 0xf7, 0xf0,
  0xf9, 0xf8, 0xfe, 0xf3, 0xd7, 0x13, 0xda, 0xfe, 0xe7, 0xf5, 0xc3, 0xb8,
  0xe2, 0xf7, 0xf3, 0x9a, 0xfd, 0xd6, 0x81, 0xdc, 0xec, 0xfe, 0xf6, 0xab,
  0xe8, 0xca, 0x9a, 0xc6, 0x07, 0xff, 0xe8, 0xac, 0xc5, 0xe7, 0x8b, 0xd4,
  0x06, 0x0e, 0xe5, 0xb6, 0xe5, 0xcc, 0xac, 0xe0, 0xfc, 0x02, 0xdc, 0xc5,
  0xa8, 0xf5, 0xff, 0xe6, 0x8f, 0xf8, 0x81, 0xa1, 0xa6, 0xdd, 0xaf, 0x92,
  0x85, 0xde, 0xdf, 0xc9, 0xe6, 0xe0, 0x90, 0xd2, 0xcf, 0xed, 0x89, 0x8b,
  0xc3, 0xeb, 0xd4, 0xd0, 0xbc, 0xee, 0x91, 0xd5, 0xda, 0xce, 0xd5, 0xba,
  0xb7, 0xa3, 0xa7, 0xf4, 0xf5, 0xf6, 0x0b, 0xd0, 0x04, 0xfe, 0x07, 0xf7,
  0x03, 0x08, 0xd3, 0xd6, 0xfb, 0x07, 0xf7, 0x08, 0xf7, 0xf7, 0xaf, 0xd0,
  0xde, 0xf3, 0xfa, 0xb7, 0xd4, 0xc1, 0x92, 0xed, 0x0c, 0x1a, 0xf9, 0xb2,
  0xfd, 0xe7, 0x92, 0x00, 0xe4, 0x05, 0xde, 0x81, 0x28, 0xba, 0x01, 0xfd,
  0xd7, 0x25, 0xe2, 0x2f, 0x0b, 0x81, 0x08, 0x0b, 0xf5, 0xf3, 0xea, 0x07,
  0xe3, 0xa6, 0xf7, 0xff, 0xea, 0xca, 0x00, 0xd2, 0xfe, 0xe3, 0xe9, 0xf6,
  0xee, 0xf4, 0xfa, 0xe6, 0x06, 0x08, 0x1c, 0xfd, 0xf4, 0x01, 0x05, 0x0d,
  0xff, 0xff, 0xfc, 0xff, 0xfe, 0xfb, 0xee, 0xfc, 0xfe, 0xfe, 0xfa, 0xf9,
  0xe7, 0xe8, 0xf4, 0xf7, 0x01, 0xfb, 0xf9, 0xf0, 0xe1, 0xc7, 0xcb, 0xed,
  0xfa, 0xf9, 0xfb, 0xf4, 0xcd, 0x81, 0xbc, 0xeb, 0xfd, 0xfe, 0x09, 0xfd,
  0xfe, 0xf7, 0x00, 0xf9, 0xea, 0xe4, 0xb9, 0xaf, 0xf7, 0xba, 0xc9, 0xfa,
  0xfa, 0x81, 0xd6, 0xf4, 0x0b, 0xea, 0xff, 0xd5, 0xee, 0xe1, 0x05, 0xfe,
  0x0e, 0xf8, 0x0b, 0x06, 0x0e, 0xe7, 0xf1, 0xe3, 0x06, 0xda, 0xff, 0xf0,
  0x0c, 0xec, 0xe4, 0xfc, 0x2e, 0xfb, 0x99, 0x02, 0x1d, 0x1e, 0x97, 0xf2,
  0x1e, 0xca, 0xf6, 0xf5, 0xea, 0xdd, 0x81, 0xdb, 0xe8, 0xfa, 0xf0, 0xf2,
  0xc4, 0xcd, 0xc5, 0xf4, 0xe2, 0xc7, 0xcc, 0xcb, 0xcf, 0xde, 0xe5, 0xee,
  0x13, 0xdd, 0xec, 0xdd, 0xda, 0xf7, 0xdb, 0xfd, 0x05, 0x10, 0xdc, 0xfc,
  0xfd, 0xfe, 0xfb, 0xfe, 0x00, 0x01, 0xfe, 0xfc, 0xfc, 0xfd, 0xfb, 0xfe,
  0xfb, 0x01, 0xf9, 0xfa, 0xf9, 0xfd, 0xfa, 0xfd, 0xfa, 0x02, 0xfc, 0xfc,
  0x00, 0x81, 0xe5, 0xf7, 0xf8, 0xdf, 0x96, 0xe9, 0xf3, 0xed, 0x99, 0xfb,
  0xfd, 0xf3, 0xfa, 0xda, 0xce, 0xdd, 0xe2, 0xa8, 0xb4, 0xc4, 0xd8, 0xdd,
  0x01, 0x10, 0x40, 0xd0, 0xc0, 0xd0, 0xfb, 0x03, 0x16, 0x0e, 0x15, 0xfb,
  0xe3, 0xf5, 0x13, 0x00, 0xd8, 0xf8, 0xc5, 0x81, 0xb1, 0x0f, 0xeb, 0xec,
  0xe1, 0xf3, 0xc4, 0xf5, 0xef, 0xfb, 0x8d, 0xfc, 0x09, 0x14, 0xfa, 0xea,
  0xc5, 0x09, 0xf2, 0xed, 0xd2, 0xde, 0xe5, 0xdd, 0xc7, 0x0c, 0xa9, 0xd1,
  0xd1, 0xe6, 0xcf, 0xf3, 0x81, 0xc1, 0xba, 0xdf, 0xb9, 0xf2, 0xe9, 0xd5,
  0xd7, 0xbe, 0xb9, 0xe4, 0xd1, 0xef, 0xfd, 0x01, 0x15, 0xe8, 0x01, 0xcd,
  0xa5, 0xcf, 0xfa, 0xcc, 0xf8, 0x05, 0xb8, 0xc3, 0xf1, 0xde, 0xee, 0xe2,
  0xf9, 0xf0, 0xd0, 0xa2, 0xd9, 0x04, 0xee, 0xb0, 0xb3, 0xf6, 0xdc, 0xc4,
  0xeb, 0xda, 0xea, 0x9f, 0xb9, 0xb4, 0xe9, 0x9c, 0xc9, 0xc6, 0xd0, 0x81,
  0xe7, 0xdf, 0xa5, 0x95, 0xd5, 0xc8, 0xd9, 0xfa, 0xaa, 0xc9, 0xcf, 0xd5,
  0xfb, 0xf0, 0xac, 0xfa, 0x81, 0xd1, 0xea, 0xea, 0xd8, 0xe8, 0xf9, 0xc4,
  0xa5, 0xab, 0xd7, 0xb8, 0xf4, 0xfc, 0x07, 0xec, 0xe8, 0xcb, 0xd0, 0xaa,
  0xf6, 0xf7, 0xfa, 0xe9, 0xe4, 0xf5, 0xde, 0xe9, 0xf4, 0xf7, 0x0e, 0xde,
  0x03, 0xec, 0x02, 0x01, 0xf1, 0xf8, 0x12, 0xd5, 0x03, 0xf9, 0xfd, 0x17,
  0xef, 0xfe, 0xfe, 0xe5, 0xfb, 0xf7, 0xf7, 0x0f, 0xdb, 0xfd, 0xc7, 0xf4,
  0x0b, 0xbd, 0xbc, 0xe2, 0x01, 0x10, 0x81, 0xfa, 0x08, 0x9b, 0x8d, 0xd7,
  0xd2, 0xd4, 0xc0, 0x02, 0xe6, 0x00, 0x96, 0xc8, 0xf3, 0xd1, 0xc1, 0x00,
  0xbf, 0x00, 0xbb, 0xa8, 0xbb, 0xd6, 0xb5, 0xe2, 0xd2, 0xf9, 0xde, 0x9d,
  0xa1, 0xed, 0xa8, 0xbb, 0xa7, 0xe0, 0xd3, 0x87, 0x81, 0xa5, 0xbb, 0xac,
  0x98, 0xf7, 0x03, 0xa0, 0x01, 0x01, 0x00, 0x00, 0x00, 0xfe, 0x02, 0xfe,
  0x00, 0x00, 0xff, 0x00, 0x00, 0xff, 0xff, 0xff, 0x01, 0xff, 0x02, 0x01,
  0x02, 0x04, 0xfe, 0x03, 0xcf, 0xb3, 0x81, 0xbb, 0xcf, 0xa9, 0xdc, 0xb5,
  0xcd, 0xb7, 0xbb, 0xc1, 0xd7, 0xc4, 0xdd, 0xc6, 0x02, 0x02, 0xfe, 0x04,
  0xfe, 0xfd, 0xfc, 0xff, 0xfe, 0x00, 0xeb, 0x00, 0xfe, 0x04, 0xff, 0xfe,
  0xff, 0x01, 0xd7, 0xfe, 0xfe, 0xfa, 0xfc, 0xfa, 0x81, 0x95, 0xe4, 0xdb,
  0xe9, 0xc6, 0xda, 0xd1, 0xe1, 0xec, 0xfe, 0xe3, 0xf8, 0x01, 0xc5, 0xff,
  0xd5, 0xf1, 0xf2, 0xd8, 0xbf, 0xae, 0x11, 0xf9, 0xd5, 0x0e, 0x14, 0xf0,
  0xff, 0xeb, 0xf9, 0xf1, 0xe0, 0x09, 0xf0, 0xc2, 0xcd, 0xf9, 0x02, 0xc7,
  0x9d, 0xb5, 0xd9, 0x8e, 0x9d, 0x0e, 0xe5, 0x81, 0xd9, 0xdf, 0x06, 0xae,
  0x97, 0x26, 0x95, 0xda, 0x02, 0xfe, 0xfb, 0xfe, 0x01, 0xd9, 0xfa, 0xe7,
  0x03, 0x02, 0xee, 0x06, 0xeb, 0xcd, 0xea, 0xe4, 0xf1, 0xd1, 0xe0, 0xf3,
  0xf7, 0x81, 0x94, 0xb5, 0xfe, 0x00, 0xeb, 0xf5, 0x0f, 0xf2, 0xd0, 0xd7,
  0xfe, 0x01, 0xfe, 0x01, 0xfe, 0xf7, 0xdb, 0xf4, 0xd0, 0xca, 0xdf, 0xb9,
  0xde, 0xed, 0xde, 0xf6, 0xb2, 0xcd, 0xa8, 0xb0, 0xd7, 0xe1, 0xfc, 0xd7,
  0x98, 0xe8, 0x81, 0xe4, 0xc3, 0xcf, 0xdc, 0xb0, 0xd9, 0xd5, 0xa1, 0xce,
  0xa9, 0xe7, 0xdd, 0xca, 0xcb, 0xe1, 0xf0, 0xaf, 0xa6, 0xcd, 0x8f, 0xf5,
  0xfe, 0xff, 0x0b, 0x0f, 0xf4, 0xfd, 0xf9, 0xfa, 0xf4, 0xf8, 0x08, 0xf6,
  0xec, 0xf3, 0xfb, 0xf7, 0xe7, 0xe7, 0xfe, 0xee, 0xed, 0xf3, 0xfb, 0xf9,
  0xfb, 0xce, 0xb0, 0x94, 0xd7, 0xf2, 0xf3, 0xd9, 0xc9, 0xe3, 0xc5, 0x81,
  0xfb, 0xa6, 0xab, 0xe2, 0xeb, 0xd7, 0x0c, 0xfe, 0x9b, 0x00, 0xd1, 0xfb,
  0xd9, 0x81, 0xf6, 0xc4, 0x9f, 0xc3, 0xd3, 0xe3, 0xf4, 0xe4, 0xf2, 0xf3,
  0xf3, 0xef, 0xeb, 0xe9, 0xf3, 0xf9, 0xfe, 0xfc, 0xf4, 0xf9, 0xf6, 0xf4,
  0xf3, 0xcd, 0xff, 0xfa, 0xfe, 0xde, 0xef, 0xf8, 0xd4, 0xf8, 0xaf, 0xe3,
  0xe5, 0x02, 0xe9, 0xc0, 0xec, 0xab, 0xe9, 0xa1, 0xe7, 0xb9, 0xfe, 0xb6,
  0xdf, 0xde, 0xe6, 0x97, 0xf7, 0xdd, 0xdc, 0xda, 0xc4, 0xf7, 0xf5, 0xc5,
  0xe6, 0xc5, 0xd9, 0xb0, 0xeb, 0xe1, 0xf0, 0x06, 0x81, 0xab, 0xed, 0xc0,
  0x9f, 0xec, 0xca, 0xa1, 0xde, 0xb0, 0xe8, 0xdf, 0xd2, 0xdb, 0xd0, 0xd0,
  0xc5, 0xc8, 0x02, 0xd6, 0xf3, 0xe4, 0xb5, 0xb2, 0xaa, 0xa9, 0x0a, 0xb7,
  0xdb, 0xe4, 0xc4, 0x14, 0xaf, 0xcf, 0xc4, 0xe9, 0xf6, 0x1b, 0xd5, 0x1a,
  0xbb, 0x7f, 0xee, 0x16, 0xf3, 0xfb, 0xfa, 0xf8, 0xe0, 0x37, 0xf2, 0x2e,
  0x03, 0xf7, 0xed, 0xf3, 0xff, 0xdc, 0xf2, 0xf6, 0x0f, 0xff, 0xea, 0xec,
  0xe4, 0xdc, 0x0a, 0x01, 0xdd, 0xc8, 0xc2, 0xe2, 0xd2, 0x81, 0xed, 0xe7,
  0xe3, 0xc0, 0xeb, 0xed, 0xe6, 0xe7, 0xf5, 0xf5, 0x90, 0xa7, 0xf7, 0xf0,
  0xee, 0x81, 0xa8, 0xa6, 0xb5, 0xb0, 0xce, 0xc8, 0xc9, 0x85, 0xdb, 0xda,
  0x9e, 0xe7, 0xf6, 0x03, 0xa9, 0x98, 0x90, 0xec, 0xa2, 0xd4, 0xed, 0xb7,
  0xef, 0x95, 0xb6, 0xdf, 0x9e, 0xf5, 0xee, 0xba, 0xbb, 0xc6, 0xf0, 0x91,
  0xea, 0xe5, 0xb4, 0xed, 0xea, 0xb0, 0xde, 0xba, 0xf6, 0xc7, 0xe3, 0xd6,
  0xdc, 0x81, 0xe7, 0xcc, 0xf1, 0xed, 0xf3, 0xd8, 0xe6, 0xdc, 0xf4, 0xe8,
  0xe6, 0xed, 0x08, 0xf4, 0xd7, 0xef, 0xf4, 0xe5, 0xe3, 0xdf, 0x00, 0xfd,
  0xf5, 0xe9, 0xff, 0xe4, 0x03, 0xfc, 0xfd, 0xfb, 0xda, 0xe7, 0xd5, 0xdf,
  0xee, 0xe1, 0xf3, 0x00, 0xbc, 0xe4, 0xcf, 0xa2, 0xdc, 0xd3, 0xb3, 0xf4,
  0xa0, 0xbf, 0xdb, 0x8b, 0xbf, 0xd9, 0xa0, 0xe1, 0xdf, 0x81, 0xc8, 0xa8,
  0xb9, 0xf0, 0xde, 0xa2, 0xb6, 0xdb, 0x06, 0xec, 0xf7, 0xfe, 0xfa, 0xfd,
  0x01, 0xff, 0xfd, 0xfd, 0xf7, 0xfa, 0xf8, 0xff, 0x03, 0xfb, 0xfa, 0xf6,
  0xfb, 0xff, 0xfb, 0x01, 0x01, 0xfe, 0xfa, 0xfb, 0xba, 0xd8, 0x81, 0xb1,
  0xc8, 0xb5, 0xdc, 0x83, 0xc8, 0xe4, 0xc3, 0xde, 0x95, 0xc2, 0xba, 0xb7,
  0xe2, 0xd5, 0xed, 0xea, 0x81, 0xc0, 0xd7, 0xa3, 0xfd, 0xfd, 0x05, 0xfd,
  0xb6, 0xd9, 0xf7, 0xef, 0xfd, 0xf7, 0xfd, 0xf9, 0xf7, 0xe7, 0xff, 0xf6,
  0xe8, 0xf2, 0xf1, 0xe8, 0x01, 0xeb, 0xff, 0xf4, 0xf8, 0xf4, 0xec, 0xea,
  0xff, 0xfa, 0xfd, 0xf4, 0xc6, 0x0a, 0xe1, 0xc7, 0xd6, 0xf8, 0xd5, 0xc7,
  0xdc, 0xe1, 0xca, 0xbb, 0xd1, 0xd9, 0xde, 0xc8, 0xc5, 0x02, 0xdf, 0xd9,
  0xee, 0x9d, 0xeb, 0xdc, 0xfb, 0xf7, 0xd4, 0xdd, 0xde, 0x81, 0xfd, 0xee,
  0xec, 0xf6, 0xc6, 0xe4, 0xf5, 0x93, 0xfc, 0xe6, 0x00, 0x00, 0x00, 0x00,
  0x00, 0x00, 0x00, 0x00, 0x00, 0x00, 0x00, 0x00, 0x92, 0xfe, 0xff, 0xff,
  0x04, 0x00, 0x00, 0x00, 0x20, 0x00, 0x00, 0x00, 0x37, 0xab, 0x4e, 0xc0,
  0x80, 0x49, 0x27, 0xc0, 0x49, 0x28, 0xea, 0xbf, 0xee, 0xc3, 0x49, 0xc0,
  0x2f, 0x44, 0x53, 0xc0, 0x85, 0xe1, 0x5c, 0xc0, 0xc4, 0x37, 0xca, 0xc0,
  0x80, 0x63, 0x62, 0xc0, 0x00, 0x00, 0x00, 0x00, 0xc2, 0xfe, 0xff, 0xff,
  0x04, 0x00, 0x00, 0x00, 0x8c, 0x00, 0x00, 0x00, 0xbe, 0x17, 0xc2, 0xbd,
  0x78, 0xba, 0xc8, 0xbc, 0x77, 0xb1, 0xdc, 0xbe, 0x8e, 0x41, 0xb1, 0xbe,
  0xe1, 0xa9, 0x30, 0xbd, 0x72, 0x77, 0x28, 0xbd, 0xe5, 0x95, 0x80, 0xbd,
  0xf4, 0x49, 0x08, 0xbf, 0x23, 0xaa, 0x99, 0x3d, 0x69, 0xde, 0x2a, 0x3d,
  0x34, 0x35, 0x9f, 0xba, 0x45, 0xd1, 0xfb, 0xbd, 0x2d, 0x97, 0x08, 0x3f,
  0x36, 0xa4, 0x4f, 0xba, 0x9f, 0x62, 0x8d, 0xbf, 0x12, 0xc0, 0x05, 0xbe,
  0x8c, 0xdb, 0x4e, 0xbd, 0xf4, 0x9d, 0x95, 0xbd, 0x65, 0x61, 0x3d, 0xbe,
  0x47, 0x40, 0x27, 0xbf, 0x1b, 0x62, 0x0d, 0xbd, 0xf3, 0x14, 0x41, 0xbf,
  0x25, 0xa6, 0x46, 0x3d, 0xc7, 0x79, 0x89, 0xbe, 0x7c, 0xdd, 0x90, 0xbe,
  0xf8, 0x9a, 0xbd, 0xb9, 0x7a, 0x4b, 0xd1, 0xbe, 0x62, 0x41, 0xa3, 0x3c,
  0x81, 0xc6, 0x40, 0xbd, 0x42, 0xfc, 0x90, 0xbe, 0x52, 0x93, 0x65, 0xbd,
  0xb4, 0x98, 0x2f, 0xbf, 0x5e, 0xc8, 0x2a, 0xbd, 0xe5, 0x58, 0x22, 0xbe,
  0x88, 0x1b, 0xd5, 0xbe, 0x50, 0xf3, 0xff, 0xff, 0x00, 0x00, 0x00, 0x00,
  0x00, 0x00, 0x00, 0x00, 0x00, 0x00, 0x00, 0x00, 0x60, 0xf3, 0xff, 0xff,
  0x00, 0x00, 0x00, 0x00, 0x00, 0x00, 0x00, 0x00, 0x0f, 0x00, 0x00, 0x00,
  0x4d, 0x4c, 0x49, 0x52, 0x20, 0x43, 0x6f, 0x6e, 0x76, 0x65, 0x72, 0x74,
  0x65, 0x64, 0x2e, 0x00, 0x01, 0x00, 0x00, 0x00, 0x14, 0x00, 0x00, 0x00,
  0x00, 0x00, 0x0e, 0x00, 0x18, 0x00, 0x04, 0x00, 0x08, 0x00, 0x0c, 0x00,
  0x10, 0x00, 0x14, 0x00, 0x0e, 0x00, 0x00, 0x00, 0x4c, 0x02, 0x00, 0x00,
  0x40, 0x02, 0x00, 0x00, 0x34, 0x02, 0x00, 0x00, 0x14, 0x00, 0x00, 0x00,
  0x04, 0x00, 0x00, 0x00, 0x04, 0x00, 0x00, 0x00, 0x6d, 0x61, 0x69, 0x6e,
  0x00, 0x00, 0x00, 0x00, 0x07, 0x00, 0x00, 0x00, 0xd0, 0x01, 0x00, 0x00,
  0x6c, 0x01, 0x00, 0x00, 0x1c, 0x01, 0x00, 0x00, 0xcc, 0x00, 0x00, 0x00,
  0xa4, 0x00, 0x00, 0x00, 0x50, 0x00, 0x00, 0x00, 0x04, 0x00, 0x00, 0x00,
  0xba, 0xfe, 0xff, 0xff, 0x00, 0x00, 0x00, 0x09, 0x04, 0x00, 0x00, 0x00,
  0x24, 0x00, 0x00, 0x00, 0x18, 0x00, 0x00, 0x00, 0x0c, 0x00, 0x00, 0x00,
  0x00, 0x00, 0x06, 0x00, 0x08, 0x00, 0x04, 0x00, 0x06, 0x00, 0x00, 0x00,
  0x00, 0x00, 0x80, 0x3f, 0x01, 0x00, 0x00, 0x00, 0x0e, 0x00, 0x00, 0x00,
  0x01, 0x00, 0x00, 0x00, 0x0d, 0x00, 0x00, 0x00, 0x00, 0x00, 0x0e, 0x00,
  0x18, 0x00, 0x08, 0x00, 0x0c, 0x00, 0x10, 0x00, 0x07, 0x00, 0x14, 0x00,
  0x0e, 0x00, 0x00, 0x00, 0x00, 0x00, 0x00, 0x08, 0x03, 0x00, 0x00, 0x00,
  0x28, 0x00, 0x00, 0x00, 0x1c, 0x00, 0x00, 0x00, 0x10, 0x00, 0x00, 0x00,
  0x0c, 0x00, 0x08, 0x00, 0x00, 0x00, 0x00, 0x00, 0x00, 0x00, 0x07, 0x00,
  0x0c, 0x00, 0x00, 0x00, 0x00, 0x00, 0x00, 0x01, 0x01, 0x00, 0x00, 0x00,
  0x0d, 0x00, 0x00, 0x00, 0x03, 0x00, 0x00, 0x00, 0x0c, 0x00, 0x00, 0x00,
  0x07, 0x00, 0x00, 0x00, 0x05, 0x00, 0x00, 0x00, 0x00, 0x00, 0x0a, 0x00,
  0x10, 0x00, 0x04, 0x00, 0x08, 0x00, 0x0c, 0x00, 0x0a, 0x00, 0x00, 0x00,
  0x02, 0x00, 0x00, 0x00, 0x10, 0x00, 0x00, 0x00, 0x04, 0x00, 0x00, 0x00,
  0x01, 0x00, 0x00, 0x00, 0x0c, 0x00, 0x00, 0x00, 0x02, 0x00, 0x00, 0x00,
  0x0b, 0x00, 0x00, 0x00, 0x06, 0x00, 0x00, 0x00, 0x76, 0xff, 0xff, 0xff,
  0x00, 0x00, 0x00, 0x05, 0x01, 0x00, 0x00, 0x00, 0x38, 0x00, 0x00, 0x00,
  0x2c, 0x00, 0x00, 0x00, 0x14, 0x00, 0x00, 0x00, 0x00, 0x00, 0x0e, 0x00,
  0x14, 0x00, 0x00, 0x00, 0x04, 0x00, 0x08, 0x00, 0x0c, 0x00, 0x10, 0x00,
  0x0e, 0x00, 0x00, 0x00, 0x01, 0x00, 0x00, 0x00, 0x05, 0x00, 0x00, 0x00,
  0x01, 0x00, 0x00, 0x00, 0x05, 0x00, 0x00, 0x00, 0x01, 0x00, 0x00, 0x00,
  0x0b, 0x00, 0x00, 0x00, 0x01, 0x00, 0x00, 0x00, 0x0a, 0x00, 0x00, 0x00,
  0x62, 0xff, 0xff, 0xff, 0x00, 0x00, 0x00, 0x01, 0x24, 0x00, 0x00, 0x00,
  0x18, 0x00, 0x00, 0x00, 0x04, 0x00, 0x00, 0x00, 0x54, 0xff, 0xff, 0xff,
  0x00, 0x00, 0x00, 0x01, 0x01, 0x00, 0x00, 0x00, 0x01, 0x00, 0x00, 0x00,
  0x01, 0x00, 0x00, 0x00, 0x0a, 0x00, 0x00, 0x00, 0x03, 0x00, 0x00, 0x00,
  0x09, 0x00, 0x00, 0x00, 0x03, 0x00, 0x00, 0x00, 0x01, 0x00, 0x00, 0x00,
  0x00, 0x00, 0x0e, 0x00, 0x1a, 0x00, 0x08, 0x00, 0x0c, 0x00, 0x10, 0x00,
  0x07, 0x00, 0x14, 0x00, 0x0e, 0x00, 0x00, 0x00, 0x00, 0x00, 0x00, 0x05,
  0x01, 0x00, 0x00, 0x00, 0x3c, 0x00, 0x00, 0x00, 0x30, 0x00, 0x00, 0x00,
  0x14, 0x00, 0x00, 0x00, 0x00, 0x00, 0x0e, 0x00, 0x18, 0x00, 0x07, 0x00,
  0x08, 0x00, 0x0c, 0x00, 0x10, 0x00, 0x14, 0x00, 0x0e, 0x00, 0x00, 0x00,
  0x00, 0x00, 0x00, 0x01, 0x03, 0x00, 0x00, 0x00, 0x03, 0x00, 0x00, 0x00,
  0x03, 0x00, 0x00, 0x00, 0x03, 0x00, 0x00, 0x00, 0x01, 0x00, 0x00, 0x00,
  0x09, 0x00, 0x00, 0x00, 0x01, 0x00, 0x00, 0x00, 0x08, 0x00, 0x00, 0x00,
  0x00, 0x00, 0x0e, 0x00, 0x14, 0x00, 0x00, 0x00, 0x08, 0x00, 0x0c, 0x00,
  0x07, 0x00, 0x10, 0x00, 0x0e, 0x00, 0x00, 0x00, 0x00, 0x00, 0x00, 0x01,
  0x30, 0x00, 0x00, 0x00, 0x24, 0x00, 0x00, 0x00, 0x10, 0x00, 0x00, 0x00,
  0x0c, 0x00, 0x10, 0x00, 0x00, 0x00, 0x08, 0x00, 0x0c, 0x00, 0x07, 0x00,
  0x0c, 0x00, 0x00, 0x00, 0x00, 0x00, 0x00, 0x01, 0x01, 0x00, 0x00, 0x00,
  0x01, 0x00, 0x00, 0x00, 0x01, 0x00, 0x00, 0x00, 0x08, 0x00, 0x00, 0x00,
  0x03, 0x00, 0x00, 0x00, 0x00, 0x00, 0x00, 0x00, 0x04, 0x00, 0x00, 0x00,
  0x02, 0x00, 0x00, 0x00, 0x01, 0x00, 0x00, 0x00, 0x0e, 0x00, 0x00, 0x00,
  0x01, 0x00, 0x00, 0x00, 0x00, 0x00, 0x00, 0x00, 0x0f, 0x00, 0x00, 0x00,
  0xe8, 0x09, 0x00, 0x00, 0x38, 0x09, 0x00, 0x00, 0x8c, 0x08, 0x00, 0x00,
  0x48, 0x05, 0x00, 0x00, 0xe4, 0x04, 0x00, 0x00, 0x84, 0x04, 0x00, 0x00,
  0x38, 0x04, 0x00, 0x00, 0xc0, 0x03, 0x00, 0x00, 0xe4, 0x02, 0x00, 0x00,
  0x70, 0x02, 0x00, 0x00, 0x94, 0x01, 0x00, 0x00, 0x20, 0x01, 0x00, 0x00,
  0xc4, 0x00, 0x00, 0x00, 0x4c, 0x00, 0x00, 0x00, 0x04, 0x00, 0x00, 0x00,
  0x68, 0xf6, 0xff, 0xff, 0x34, 0x00, 0x00, 0x00, 0x0f, 0x00, 0x00, 0x00,
  0x1c, 0x00, 0x00, 0x00, 0x14, 0x00, 0x00, 0x00, 0x04, 0x00, 0x00, 0x00,
  0x02, 0x00, 0x00, 0x00, 0xff, 0xff, 0xff, 0xff, 0x23, 0x00, 0x00, 0x00,
  0x4c, 0xf6, 0xff, 0xff, 0x08, 0x00, 0x00, 0x00, 0x49, 0x64, 0x65, 0x6e,
  0x74, 0x69, 0x74, 0x79, 0x00, 0x00, 0x00, 0x00, 0x02, 0x00, 0x00, 0x00,
  0x01, 0x00, 0x00, 0x00, 0x23, 0x00, 0x00, 0x00, 0xac, 0xf6, 0xff, 0xff,
  0x64, 0x00, 0x00, 0x00, 0x0e, 0x00, 0x00, 0x00, 0x1c, 0x00, 0x00, 0x00,
  0x14, 0x00, 0x00, 0x00, 0x04, 0x00, 0x00, 0x00, 0x02, 0x00, 0x00, 0x00,
  0xff, 0xff, 0xff, 0xff, 0x23, 0x00, 0x00, 0x00, 0x90, 0xf6, 0xff, 0xff,
  0x3a, 0x00, 0x00, 0x00, 0x73, 0x65, 0x71, 0x75, 0x65, 0x6e, 0x74, 0x69,
  0x61, 0x6c, 0x5f, 0x36, 0x2f, 0x64, 0x65, 0x6e, 0x73, 0x65, 0x5f, 0x31,
  0x31, 0x2f, 0x4d, 0x61, 0x74, 0x4d, 0x75, 0x6c, 0x3b, 0x73, 0x65, 0x71,
  0x75, 0x65, 0x6e, 0x74, 0x69, 0x61, 0x6c, 0x5f, 0x36, 0x2f, 0x64, 0x65,
  0x6e, 0x73, 0x65, 0x5f, 0x31, 0x31, 0x2f, 0x42, 0x69, 0x61, 0x73, 0x41,
  0x64, 0x64, 0x00, 0x00, 0x02, 0x00, 0x00, 0x00, 0x01, 0x00, 0x00, 0x00,
  0x23, 0x00, 0x00, 0x00, 0x20, 0xf7, 0xff, 0xff, 0x48, 0x00, 0x00, 0x00,
  0x0d, 0x00, 0x00, 0x00, 0x1c, 0x00, 0x00, 0x00, 0x14, 0x00, 0x00, 0x00,
  0x04, 0x00, 0x00, 0x00, 0x02, 0x00, 0x00, 0x00, 0xff, 0xff, 0xff, 0xff,
  0x5e, 0x01, 0x00, 0x00, 0x04, 0xf7, 0xff, 0xff, 0x1e, 0x00, 0x00, 0x00,
  0x73, 0x65, 0x71, 0x75, 0x65, 0x6e, 0x74, 0x69, 0x61, 0x6c, 0x5f, 0x36,
  0x2f, 0x66, 0x6c, 0x61, 0x74, 0x74, 0x65, 0x6e, 0x5f, 0x36, 0x2f, 0x52,
  0x65, 0x73, 0x68, 0x61, 0x70, 0x65, 0x00, 0x00, 0x02, 0x00, 0x00, 0x00,
  0x01, 0x00, 0x00, 0x00, 0x5e, 0x01, 0x00, 0x00, 0x78, 0xf7, 0xff, 0xff,
  0x58, 0x00, 0x00, 0x00, 0x0c, 0x00, 0x00, 0x00, 0x24, 0x00, 0x00, 0x00,
  0x1c, 0x00, 0x00, 0x00, 0x04, 0x00, 0x00, 0x00, 0x04, 0x00, 0x00, 0x00,
  0xff, 0xff, 0xff, 0xff, 0x0a, 0x00, 0x00, 0x00, 0x01, 0x00, 0x00, 0x00,
  0x23, 0x00, 0x00, 0x00, 0x64, 0xf7, 0xff, 0xff, 0x25, 0x00, 0x00, 0x00,
  0x73, 0x65, 0x71, 0x75, 0x65, 0x6e, 0x74, 0x69, 0x61, 0x6c, 0x5f, 0x36,
  0x2f, 0x6d, 0x61, 0x78, 0x5f, 0x70, 0x6f, 0x6f, 0x6c, 0x69, 0x6e, 0x67,
  0x32, 0x64, 0x5f, 0x31, 0x32, 0x2f, 0x4d, 0x61, 0x78, 0x50, 0x6f, 0x6f,
  0x6c, 0x00, 0x00, 0x00, 0x04, 0x00, 0x00, 0x00, 0x01, 0x00, 0x00, 0x00,
  0x0a, 0x00, 0x00, 0x00, 0x01, 0x00, 0x00, 0x00, 0x23, 0x00, 0x00, 0x00,
  0xe8, 0xf7, 0xff, 0xff, 0xc0, 0x00, 0x00, 0x00, 0x0b, 0x00, 0x00, 0x00,
  0x24, 0x00, 0x00, 0x00, 0x1c, 0x00, 0x00, 0x00, 0x04, 0x00, 0x00, 0x00,
  0x04, 0x00, 0x00, 0x00, 0xff, 0xff, 0xff, 0xff, 0x2e, 0x00, 0x00, 0x00,
  0x01, 0x00, 0x00, 0x00, 0x23, 0x00, 0x00, 0x00, 0xd4, 0xf7, 0xff, 0xff,
  0x8f, 0x00, 0x00, 0x00, 0x73, 0x65, 0x71, 0x75, 0x65, 0x6e, 0x74, 0x69,
  0x61, 0x6c, 0x5f, 0x36, 0x2f, 0x63, 0x6f, 0x6e, 0x76, 0x32, 0x64, 0x5f,
  0x31, 0x32, 0x2f, 0x52, 0x65, 0x6c, 0x75, 0x3b, 0x73, 0x65, 0x71, 0x75,
  0x65, 0x6e, 0x74, 0x69, 0x61, 0x6c, 0x5f, 0x36, 0x2f, 0x63, 0x6f, 0x6e,
  0x76, 0x32, 0x64, 0x5f, 0x31, 0x32, 0x2f, 0x42, 0x69, 0x61, 0x73, 0x41,
  0x64, 0x64, 0x3b, 0x73, 0x65, 0x71, 0x75, 0x65, 0x6e, 0x74, 0x69, 0x61,
  0x6c, 0x5f, 0x36, 0x2f, 0x63, 0x6f, 0x6e, 0x76, 0x32, 0x64, 0x5f, 0x31,
  0x32, 0x2f, 0x43, 0x6f, 0x6e, 0x76, 0x32, 0x44, 0x3b, 0x73, 0x65, 0x71,
  0x75, 0x65, 0x6e, 0x74, 0x69, 0x61, 0x6c, 0x5f, 0x36, 0x2f, 0x63, 0x6f,
  0x6e, 0x76, 0x32, 0x64, 0x5f, 0x31, 0x32, 0x2f, 0x42, 0x69, 0x61, 0x73,
  0x41, 0x64, 0x64, 0x2f, 0x52, 0x65, 0x61, 0x64, 0x56, 0x61, 0x72, 0x69,
  0x61, 0x62, 0x6c, 0x65, 0x4f, 0x70, 0x2f, 0x72, 0x65, 0x73, 0x6f, 0x75,
  0x72, 0x63, 0x65, 0x00, 0x04, 0x00, 0x00, 0x00, 0x01, 0x00, 0x00, 0x00,
  0x2e, 0x00, 0x00, 0x00, 0x01, 0x00, 0x00, 0x00, 0x23, 0x00, 0x00, 0x00,
  0xc0, 0xf8, 0xff, 0xff, 0x58, 0x00, 0x00, 0x00, 0x0a, 0x00, 0x00, 0x00,
  0x24, 0x00, 0x00, 0x00, 0x1c, 0x00, 0x00, 0x00, 0x04, 0x00, 0x00, 0x00,
  0x04, 0x00, 0x00, 0x00, 0xff, 0xff, 0xff, 0xff, 0x2e, 0x00, 0x00, 0x00,
  0x01, 0x00, 0x00, 0x00, 0x08, 0x00, 0x00, 0x00, 0xac, 0xf8, 0xff, 0xff,
  0x25, 0x00, 0x00, 0x00, 0x73, 0x65, 0x71, 0x75, 0x65, 0x6e, 0x74, 0x69,
